{
  "version": "1.0",
  "truncation": null,
  "padding": null,
  "added_tokens": [
    {
      "id": 0,
      "content": "[PAD]",
      "single_word": false,
      "lstrip": false,
      "rstrip": false,
      "normalized": false,
      "special": true
    },
    {
      "id": 1,
      "content": "[UNK]",
      "single_word": false,
      "lstrip": false,
      "rstrip": false,
      "normalized": false,
      "special": true
    },
    {
      "id": 2,
      "content": "[CLS]",
      "single_word": false,
      "lstrip": false,
      "rstrip": false,
      "normalized": false,
      "special": true
    },
    {
      "id": 3,
      "content": "[SEP]",
      "single_word": false,
      "lstrip": false,
      "rstrip": false,
      "normalized": false,
      "special": true
    },
    {
      "id": 4,
      "content": "[MASK]",
      "single_word": false,
      "lstrip": false,
      "rstrip": false,
      "normalized": false,
      "special": true
    }
  ],
  "normalizer": {
    "type": "Sequence",
    "normalizers": [
      {
        "type": "NFD"
      },
      {
        "type": "Lowercase"
      },
      {
        "type": "StripAccents"
      }
    ]
  },
  "pre_tokenizer": {
    "type": "ByteLevel",
    "add_prefix_space": true,
    "trim_offsets": true,
    "use_regex": true
  },
  "post_processor": null,
  "decoder": {
    "type": "ByteLevel",
    "add_prefix_space": true,
    "trim_offsets": true,
    "use_regex": true
  },
  "model": {
    "type": "BPE",
    "dropout": null,
    "unk_token": "[UNK]",
    "continuing_subword_prefix": null,
    "end_of_word_suffix": null,
    "fuse_unk": false,
    "byte_fallback": false,
    "ignore_merges": false,
    "vocab": {
      "[PAD]": 0,
      "[UNK]": 1,
      "[CLS]": 2,
      "[SEP]": 3,
      "[MASK]": 4,
      "!": 5,
      "\"": 6,
      "#": 7,
      "$": 8,
      "%": 9,
      "&": 10,
      "'": 11,
      "(": 12,
      ")": 13,
      "*": 14,
      "+": 15,
      ",": 16,
      "-": 17,
      ".": 18,
      "/": 19,
      "0": 20,
      "1": 21,
      "2": 22,
      "3": 23,
      "4": 24,
      "5": 25,
      "6": 26,
      "7": 27,
      "8": 28,
      "9": 29,
      ":": 30,
      ";": 31,
      "<": 32,
      "=": 33,
      ">": 34,
      "?": 35,
      "@": 36,
      "[": 37,
      "\\": 38,
      "]": 39,
      "^": 40,
      "_": 41,
      "`": 42,
      "a": 43,
      "b": 44,
      "c": 45,
      "d": 46,
      "e": 47,
      "f": 48,
      "g": 49,
      "h": 50,
      "i": 51,
      "j": 52,
      "k": 53,
      "l": 54,
      "m": 55,
      "n": 56,
      "o": 57,
      "p": 58,
      "q": 59,
      "r": 60,
      "s": 61,
      "t": 62,
      "u": 63,
      "v": 64,
      "w": 65,
      "x": 66,
      "y": 67,
      "z": 68,
      "{": 69,
      "|": 70,
      "}": 71,
      "~": 72,
      "¡": 73,
      "¢": 74,
      "£": 75,
      "¤": 76,
      "¥": 77,
      "¦": 78,
      "§": 79,
      "¨": 80,
      "©": 81,
      "ª": 82,
      "«": 83,
      "¬": 84,
      "®": 85,
      "¯": 86,
      "°": 87,
      "±": 88,
      "²": 89,
      "³": 90,
      "´": 91,
      "µ": 92,
      "¶": 93,
      "·": 94,
      "¸": 95,
      "¹": 96,
      "º": 97,
      "»": 98,
      "¼": 99,
      "½": 100,
      "¾": 101,
      "¿": 102,
      "Â": 103,
      "Ã": 104,
      "Ä": 105,
      "Å": 106,
      "È": 107,
      "Ê": 108,
      "Î": 109,
      "Ï": 110,
      "Ð": 111,
      "Ñ": 112,
      "â": 113,
      "ã": 114,
      "ä": 115,
      "å": 116,
      "æ": 117,
      "ç": 118,
      "è": 119,
      "é": 120,
      "ð": 121,
      "ĉ": 122,
      "Ċ": 123,
      "č": 124,
      "Ġ": 125,
      "Ģ": 126,
      "ģ": 127,
      "Ĥ": 128,
      "ĥ": 129,
      "Ħ": 130,
      "ħ": 131,
      "Ĩ": 132,
      "ĩ": 133,
      "Ī": 134,
      "ī": 135,
      "Ĭ": 136,
      "ĭ": 137,
      "Į": 138,
      "į": 139,
      "İ": 140,
      "ı": 141,
      "Ĳ": 142,
      "ĳ": 143,
      "Ĵ": 144,
      "ĵ": 145,
      "Ķ": 146,
      "ķ": 147,
      "ĸ": 148,
      "Ĺ": 149,
      "ĺ": 150,
      "Ļ": 151,
      "ļ": 152,
      "Ľ": 153,
      "ľ": 154,
      "Ŀ": 155,
      "ŀ": 156,
      "Ł": 157,
      "ł": 158,
      "Ń": 159,
      "Ġt": 160,
      "in": 161,
      "Ġa": 162,
      "er": 163,
      "es": 164,
      "on": 165,
      "Ġth": 166,
      "Ġs": 167,
      "Ġc": 168,
      "en": 169,
      "ing": 170,
      "ti": 171,
      "or": 172,
      "Ġw": 173,
      "nd": 174,
      "ou": 175,
      "re": 176,
      "al": 177,
      "Ġp": 178,
      "Ġthe": 179,
      "Ġf": 180,
      "at": 181,
      "Ġb": 182,
      "it": 183,
      "Ġm": 184,
      "ed": 185,
      "an": 186,
      "Ġd": 187,
      "Ġo": 188,
      "Ġand": 189,
      "ar": 190,
      "Ġin": 191,
      "is": 192,
      "Ġh": 193,
      "le": 194,
      "Ġto": 195,
      "Ġe": 196,
      "tion": 197,
      "om": 198,
      "ic": 199,
      "Ġof": 200,
      "Ġl": 201,
      "ent": 202,
      "el": 203,
      "st": 204,
      "ec": 205,
      "ro": 206,
      "ac": 207,
      "th": 208,
      "--": 209,
      "Ġu": 210,
      "Ġre": 211,
      "Ġg": 212,
      "Ġn": 213,
      "as": 214,
      "il": 215,
      "Ġy": 216,
      "ow": 217,
      "im": 218,
      "Ġwh": 219,
      "ation": 220,
      "ig": 221,
      "ur": 222,
      "ol": 223,
      "ve": 224,
      "Ġyou": 225,
      "ly": 226,
      "ers": 227,
      "id": 228,
      "Ġst": 229,
      "et": 230,
      "Ġr": 231,
      "ce": 232,
      "ir": 233,
      "Ġcon": 234,
      "Ġex": 235,
      "ess": 236,
      "am": 237,
      "ul": 238,
      "ver": 239,
      "Ġfor": 240,
      "ay": 241,
      "ts": 242,
      "ad": 243,
      "Ġon": 244,
      "ag": 245,
      "ter": 246,
      "ith": 247,
      "if": 248,
      "ch": 249,
      "Ġcom": 250,
      "----": 251,
      "Ġit": 252,
      "Ġor": 253,
      "Ġwith": 254,
      "Ġas": 255,
      "ap": 256,
      "em": 257,
      "Ġch": 258,
      "Ġv": 259,
      "Ġle": 260,
      "ke": 261,
      "us": 262,
      "Ġpro": 263,
      "Ġthat": 264,
      "os": 265,
      "Ġbe": 266,
      "Ġal": 267,
      "Ġan": 268,
      "our": 269,
      "out": 270,
      "'s": 271,
      "qu": 272,
      "ri": 273,
      "ate": 274,
      "and": 275,
      "Ġen": 276,
      "Ġsu": 277,
      "ain": 278,
      "od": 279,
      "ab": 280,
      "igh": 281,
      "tic": 282,
      "ut": 283,
      "ome": 284,
      "ity": 285,
      "pl": 286,
      "rou": 287,
      "Ġwe": 288,
      "Ġsh": 289,
      "Ġthis": 290,
      "op": 291,
      "Ġus": 292,
      "Ġli": 293,
      "Ġis": 294,
      "ere": 295,
      "ci": 296,
      "ese": 297,
      "ment": 298,
      "Ġint": 299,
      "Ġyour": 300,
      "gh": 301,
      "un": 302,
      "ore": 303,
      "Ġtr": 304,
      "ion": 305,
      "ist": 306,
      "ld": 307,
      "Ġim": 308,
      "Ġab": 309,
      "Ġsp": 310,
      "ies": 311,
      "Ġthey": 312,
      "Ġtheir": 313,
      "ure": 314,
      "Ġj": 315,
      "ot": 316,
      "Ġun": 317,
      "Ġne": 318,
      "ous": 319,
      "all": 320,
      "Ġac": 321,
      "Ġby": 322,
      "Ġwor": 323,
      "ther": 324,
      "ill": 325,
      "ine": 326,
      "ant": 327,
      "Ġde": 328,
      "um": 329,
      "Ġthese": 330,
      "Ġcan": 331,
      "Ġpr": 332,
      "Ġfr": 333,
      "Ġsome": 334,
      "ight": 335,
      "ĠĠ": 336,
      "pp": 337,
      "Ġse": 338,
      "ations": 339,
      "Ġad": 340,
      "Ġso": 341,
      "Ġpl": 342,
      "uc": 343,
      "iv": 344,
      "iz": 345,
      "Ġhe": 346,
      "Ġhow": 347,
      "tions": 348,
      "king": 349,
      "ge": 350,
      "ting": 351,
      "Ġabout": 352,
      "per": 353,
      "ud": 354,
      "Ġcomp": 355,
      "**": 356,
      "end": 357,
      "Ġare": 358,
      "Ġme": 359,
      "ance": 360,
      "--------": 361,
      "Ġk": 362,
      "iti": 363,
      "ally": 364,
      "ach": 365,
      "ust": 366,
      "og": 367,
      "ort": 368,
      "Ġat": 369,
      "Ġ(": 370,
      "oc": 371,
      "Ġres": 372,
      "Ġlike": 373,
      "Ġcont": 374,
      "ves": 375,
      "ard": 376,
      "Ġdis": 377,
      "nder": 378,
      "Ġar": 379,
      "Ġinto": 380,
      "ide": 381,
      "ating": 382,
      "enti": 383,
      "are": 384,
      "Ġunder": 385,
      "ell": 386,
      "fer": 387,
      "ect": 388,
      "ong": 389,
      "av": 390,
      "ign": 391,
      "Ġfrom": 392,
      "ans": 393,
      "rough": 394,
      "Ġour": 395,
      "ces": 396,
      "one": 397,
      "now": 398,
      "âĢ": 399,
      "ati": 400,
      "Ġcre": 401,
      "Ġev": 402,
      "ks": 403,
      "ave": 404,
      "age": 405,
      "Ġem": 406,
      "als": 407,
      "Ġstr": 408,
      "ep": 409,
      "ence": 410,
      "ind": 411,
      "Ġimp": 412,
      "ile": 413,
      "able": 414,
      "ould": 415,
      "Ġthrough": 416,
      "act": 417,
      "est": 418,
      "ents": 419,
      "Ġall": 420,
      "Ġwhen": 421,
      "Ġever": 422,
      "Ġpar": 423,
      "ical": 424,
      "Ġinc": 425,
      "Ġthem": 426,
      "ens": 427,
      "for": 428,
      "ast": 429,
      "ors": 430,
      "ip": 431,
      "Ġexpl": 432,
      "Ġ\"": 433,
      "Ġman": 434,
      "oo": 435,
      "ary": 436,
      "stand": 437,
      "Ġcl": 438,
      "Ġcomm": 439,
      "Ġwhat": 440,
      "arn": 441,
      "vel": 442,
      "ful": 443,
      "Ġind": 444,
      "Ġam": 445,
      "Ġunderstand": 446,
      "Ġpe": 447,
      "Ġma": 448,
      "Ġro": 449,
      "ings": 450,
      "ie": 451,
      "ities": 452,
      "ious": 453,
      "Ġmo": 454,
      "Ġhel": 455,
      "uring": 456,
      "Ġinter": 457,
      "ue": 458,
      "ult": 459,
      "ib": 460,
      "Ġfe": 461,
      "Ġup": 462,
      "ory": 463,
      "ose": 464,
      "Ġtim": 465,
      "ific": 466,
      "Ġqu": 467,
      "Ġbut": 468,
      "Ġcons": 469,
      "Ġits": 470,
      "Ġlet": 471,
      "ures": 472,
      "Ġdo": 473,
      "Ġbet": 474,
      "ated": 475,
      "Ġwill": 476,
      "Ġapp": 477,
      "ass": 478,
      "ath": 479,
      "cess": 480,
      "Ġhelp": 481,
      "'t": 482,
      "Ġpre": 483,
      "ff": 484,
      "Ġone": 485,
      "Ġ1": 486,
      "ack": 487,
      "Ġdes": 488,
      "Ġlearn": 489,
      "Ġhave": 490,
      "Ġgo": 491,
      "ple": 492,
      "Ġwhile": 493,
      "Ġdif": 494,
      "ive": 495,
      "Ġcol": 496,
      "ace": 497,
      "Ġmore": 498,
      "ang": 499,
      "ich": 500,
      "Ġsuch": 501,
      "lec": 502,
      "Ġevery": 503,
      "ound": 504,
      "Ġbec": 505,
      "Ġi": 506,
      "round": 507,
      "ual": 508,
      "ments": 509,
      "Ġknow": 510,
      "form": 511,
      "ough": 512,
      "Ġwho": 513,
      "oun": 514,
      "ech": 515,
      "Ġexam": 516,
      "so": 517,
      "duc": 518,
      "Ġper": 519,
      "Ġher": 520,
      "Ġthere": 521,
      "pr": 522,
      "les": 523,
      "Ġover": 524,
      "Ġspec": 525,
      "ater": 526,
      "ex": 527,
      "ays": 528,
      "Ġdiffer": 529,
      "Ġinst": 530,
      "ople": 531,
      "ial": 532,
      "Ġco": 533,
      "we": 534,
      "ry": 535,
      "ition": 536,
      "ire": 537,
      "Ġwas": 538,
      "ra": 539,
      "Ġpeople": 540,
      "Ġtime": 541,
      "Ġins": 542,
      "thing": 543,
      "ving": 544,
      "art": 545,
      "Ġrel": 546,
      "olog": 547,
      "ĠâĢ": 548,
      "Ġbo": 549,
      "ame": 550,
      "Ġworld": 551,
      "Ġdisc": 552,
      "ish": 553,
      "Ġrem": 554,
      "Ġif": 555,
      "Ġ-": 556,
      "Ġout": 557,
      "Ġsy": 558,
      "se": 559,
      "Ġexper": 560,
      "iqu": 561,
      "tim": 562,
      "ild": 563,
      "ential": 564,
      "Ġnew": 565,
      "Ġwhere": 566,
      "Ġvar": 567,
      "Ġduring": 568,
      "Ġcommun": 569,
      "ond": 570,
      "Ġag": 571,
      "ten": 572,
      "ite": 573,
      "yp": 574,
      "cial": 575,
      "ions": 576,
      "Ġsim": 577,
      "ood": 578,
      "Ġstud": 579,
      "ection": 580,
      "ily": 581,
      "Ġhist": 582,
      "Ġpers": 583,
      "ber": 584,
      "Ġeven": 585,
      "ice": 586,
      "Ġph": 587,
      "Ġtech": 588,
      "elf": 589,
      "ved": 590,
      "Ġcall": 591,
      "Ġta": 592,
      "Ġrec": 593,
      "Ġreg": 594,
      "----------------": 595,
      "ĠâĢĵ": 596,
      "Ġmight": 597,
      "ences": 598,
      "ĠĠĠĠ": 599,
      "Ġother": 600,
      "Ġusing": 601,
      "Ġno": 602,
      "agine": 603,
      "Ġtechn": 604,
      "##": 605,
      "tive": 606,
      "Ġdec": 607,
      "Ġgr": 608,
      "ism": 609,
      "ll": 610,
      "ely": 611,
      "row": 612,
      "ural": 613,
      "ons": 614,
      "Ġdifferent": 615,
      "Ġmay": 616,
      "ates": 617,
      "tain": 618,
      "Ġwhich": 619,
      "Ġadd": 620,
      "ys": 621,
      "Ġsc": 622,
      "Ġhis": 623,
      "Ġneed": 624,
      "Ġunderstanding": 625,
      "Ġwithin": 626,
      "Ġsign": 627,
      "Ġbetwe": 628,
      "Ġbetween": 629,
      "ife": 630,
      "ular": 631,
      "ative": 632,
      "ook": 633,
      "eng": 634,
      "low": 635,
      "Ġbr": 636,
      "Ġjust": 637,
      "Ġcould": 638,
      "aus": 639,
      "Ġeach": 640,
      "Ġincl": 641,
      "ia": 642,
      "ric": 643,
      "Ġke": 644,
      "Ġexperi": 645,
      "tiv": 646,
      "ects": 647,
      "Ġte": 648,
      "Ġinv": 649,
      "gr": 650,
      "pt": 651,
      "Ġbu": 652,
      "ord": 653,
      "Ġfun": 654,
      "over": 655,
      "ob": 656,
      "Ġvarious": 657,
      "Ġaf": 658,
      "ility": 659,
      "app": 660,
      "Ġ2": 661,
      "Ġany": 662,
      "ms": 663,
      "Ġcult": 664,
      "alth": 665,
      "ues": 666,
      "the": 667,
      "wn": 668,
      "Ġsm": 669,
      "Ġsk": 670,
      "Ġadv": 671,
      "Ġbas": 672,
      "ivid": 673,
      "Ġcalled": 674,
      "fore": 675,
      "Ġthin": 676,
      "ories": 677,
      "Ġtw": 678,
      "Ġval": 679,
      "rib": 680,
      "tical": 681,
      "Ġlo": 682,
      "ever": 683,
      "Ġmar": 684,
      "Ġmod": 685,
      "Ġshe": 686,
      "Ġmany": 687,
      "Ġwork": 688,
      "Ġpos": 689,
      "Ġsa": 690,
      "Ġhas": 691,
      "Ġop": 692,
      "ne": 693,
      "riend": 694,
      "Ġprov": 695,
      "Ġser": 696,
      "Ġplay": 697,
      "hip": 698,
      "ars": 699,
      "Ġgen": 700,
      "wh": 701,
      "Ġfam": 702,
      "Ġimport": 703,
      "Ġinclud": 704,
      "Ġhum": 705,
      "ower": 706,
      "Ġuse": 707,
      "Ġprac": 708,
      "Ġalso": 709,
      "Ġunit": 710,
      "ward": 711,
      "urn": 712,
      "Ġthose": 713,
      "apter": 714,
      "Ġsur": 715,
      "Ġdel": 716,
      "Ġset": 717,
      "Ġpo": 718,
      "Ġmy": 719,
      "Ġwould": 720,
      "Ġpol": 721,
      "``": 722,
      "day": 723,
      "Ġcr": 724,
      "Ġeng": 725,
      "Ġlead": 726,
      "Ġtyp": 727,
      "Ġfriend": 728,
      "gether": 729,
      "Ġindivid": 730,
      "Ġthan": 731,
      "ature": 732,
      "Ġacc": 733,
      "Ġhealth": 734,
      "Ġresp": 735,
      "ount": 736,
      "Ġchar": 737,
      "Ġchall": 738,
      "Ġback": 739,
      "lex": 740,
      "Ġlife": 741,
      "stem": 742,
      "ness": 743,
      "Ġboth": 744,
      "its": 745,
      "Ġ**": 746,
      "Ġtogether": 747,
      "ail": 748,
      "Ġnot": 749,
      "ade": 750,
      "irst": 751,
      "own": 752,
      "ak": 753,
      "Ġexplor": 754,
      "fl": 755,
      "por": 756,
      "Ġsomething": 757,
      "Ġaround": 758,
      "Ġconn": 759,
      "Ġreal": 760,
      "Ġcreate": 761,
      "gan": 762,
      "Ġexplore": 763,
      "Ġbel": 764,
      "ages": 765,
      "Ġtrans": 766,
      "Ġgre": 767,
      "Ġdesign": 768,
      "Ġgu": 769,
      "ivers": 770,
      "enc": 771,
      "ize": 772,
      "Ġwell": 773,
      "Ġfeel": 774,
      "tr": 775,
      "ern": 776,
      "Ġbl": 777,
      "Ġeff": 778,
      "Ġprocess": 779,
      "be": 780,
      "Ġexample": 781,
      "red": 782,
      "Ġfl": 783,
      "arch": 784,
      "ized": 785,
      "Ġsignific": 786,
      "Ġsee": 787,
      "Ġallow": 788,
      "Ġess": 789,
      "ros": 790,
      "ty": 791,
      "old": 792,
      "Ġchapter": 793,
      "ique": 794,
      "ider": 795,
      "Ġwr": 796,
      "velop": 797,
      "ible": 798,
      "oy": 799,
      "Ġhigh": 800,
      "Ġmed": 801,
      ").": 802,
      "ian": 803,
      "Ġget": 804,
      "other": 805,
      "Ġob": 806,
      "Ġsystem": 807,
      "ps": 808,
      "ics": 809,
      "ase": 810,
      "Ġcour": 811,
      "tern": 812,
      "int": 813,
      "Ġtwo": 814,
      "Ġdevelop": 815,
      "thers": 816,
      "Ġown": 817,
      "Ġfind": 818,
      "Ġsch": 819,
      "ines": 820,
      "Ġoften": 821,
      "Ġref": 822,
      "Ġread": 823,
      "Ġens": 824,
      "Ġthough": 825,
      "ology": 826,
      "arm": 827,
      "ution": 828,
      "Ġothers": 829,
      "Ġbefore": 830,
      "Ġinvol": 831,
      "Ġlit": 832,
      "pport": 833,
      "Ġloc": 834,
      "Ġwere": 835,
      "aph": 836,
      "Ġvis": 837,
      "Ġperson": 838,
      "Ġspecific": 839,
      "wor": 840,
      "Ġid": 841,
      "erg": 842,
      "Ġtrad": 843,
      "esent": 844,
      "aw": 845,
      "to": 846,
      "Ġenc": 847,
      "Ġtoo": 848,
      "led": 849,
      "ands": 850,
      "ph": 851,
      "Ġed": 852,
      "Ġimagine": 853,
      "ise": 854,
      "br": 855,
      "),": 856,
      "ree": 857,
      "ub": 858,
      "ick": 859,
      "ause": 860,
      "Ġhapp": 861,
      "ember": 862,
      "ead": 863,
      "ange": 864,
      "Ġcare": 865,
      "Ġnum": 866,
      "Ġpower": 867,
      "Ġdown": 868,
      "ement": 869,
      "Ġmain": 870,
      "Ġform": 871,
      "ven": 872,
      "Ġshare": 873,
      "Ġidenti": 874,
      "Ġfunc": 875,
      "ying": 876,
      "Ġsec": 877,
      "Ġbuild": 878,
      "ict": 879,
      "Ġpartic": 880,
      "Ġgrow": 881,
      "Ġ`": 882,
      "Ġfol": 883,
      "ational": 884,
      "Ġlearning": 885,
      "Ġunique": 886,
      "Ġprot": 887,
      "ights": 888,
      "Ġamong": 889,
      "Ġchalleng": 890,
      "ata": 891,
      "Ġpot": 892,
      "ross": 893,
      "ering": 894,
      "Ġthink": 895,
      "itions": 896,
      "Ġconsider": 897,
      "Ġafter": 898,
      "fic": 899,
      "Ġdet": 900,
      "Ġthen": 901,
      "uss": 902,
      "Ġfirst": 903,
      "Ġear": 904,
      "Ġcent": 905,
      "let": 906,
      "Ġtal": 907,
      "Ġgl": 908,
      "Ġdist": 909,
      "Ġhowever": 910,
      "kes": 911,
      "Ġway": 912,
      "Ġessential": 913,
      "con": 914,
      "rop": 915,
      "ality": 916,
      "ext": 917,
      "Ġcur": 918,
      "Ġfoc": 919,
      "Ġwhy": 920,
      "Ġsoci": 921,
      "Ġmus": 922,
      "Ġfac": 923,
      "Ġdue": 924,
      "ently": 925,
      "ene": 926,
      "Ġplan": 927,
      "ost": 928,
      "Ġfocus": 929,
      "Ġtoday": 930,
      "Ġhistory": 931,
      "ety": 932,
      "Ġbeh": 933,
      "Ġstart": 934,
      "asc": 935,
      "Ġsol": 936,
      "Ġsub": 937,
      "Ġhad": 938,
      "iting": 939,
      "ft": 940,
      "Ġbeing": 941,
      "Ġsci": 942,
      "iron": 943,
      "ession": 944,
      "Ġbetter": 945,
      "Ġcap": 946,
      "Ġgrou": 947,
      "Ġdoes": 948,
      "Ġshap": 949,
      "ples": 950,
      "str": 951,
      "lect": 952,
      ".\"": 953,
      "less": 954,
      "ices": 955,
      "Ġconce": 956,
      "Ġbre": 957,
      "Ġsignificant": 958,
      "Ġdef": 959,
      "duction": 960,
      "ble": 961,
      "ool": 962,
      "Ġexp": 963,
      "ateg": 964,
      "Ġmean": 965,
      "Ġcomplex": 966,
      "ct": 967,
      "ather": 968,
      "Ġfin": 969,
      "esearch": 970,
      "aring": 971,
      "Ġasp": 972,
      "Ġwant": 973,
      "uct": 974,
      "Ġthings": 975,
      "air": 976,
      "Ġlook": 977,
      "Ġmaking": 978,
      "aging": 979,
      "Ġenv": 980,
      "Ġprom": 981,
      "angu": 982,
      "uals": 983,
      "ilar": 984,
      "Ġap": 985,
      "Ġinform": 986,
      "Ġresearch": 987,
      "section": 988,
      "Ġright": 989,
      "tics": 990,
      "anc": 991,
      "ties": 992,
      "plic": 993,
      "Ġanother": 994,
      "Ġsomeone": 995,
      "times": 996,
      "Ġdata": 997,
      "Ġlangu": 998,
      "Ġass": 999,
      "Ġfound": 1000,
      "Ġmat": 1001,
      "Ġstories": 1002,
      "Ġide": 1003,
      "Ġrole": 1004,
      "Ġremember": 1005,
      "ually": 1006,
      "til": 1007,
      "Ġnow": 1008,
      "ds": 1009,
      "Ġday": 1010,
      "Ġbelie": 1011,
      "au": 1012,
      "Ġfriends": 1013,
      "iness": 1014,
      "ources": 1015,
      "Ġkeep": 1016,
      "Ġcount": 1017,
      "Ġmake": 1018,
      "Ġenviron": 1019,
      "gg": 1020,
      "wards": 1021,
      "Ġfollow": 1022,
      "Ġrepr": 1023,
      "ining": 1024,
      "Ġcourse": 1025,
      "Ġdid": 1026,
      "ling": 1027,
      "erm": 1028,
      "Ġrequ": 1029,
      "inating": 1030,
      "Ġorgan": 1031,
      "Ġbod": 1032,
      "Ġconc": 1033,
      "Ġimportant": 1034,
      "Ġcor": 1035,
      "Ġexploring": 1036,
      "'re": 1037,
      "Ġfact": 1038,
      "Ġexc": 1039,
      "Ġfunction": 1040,
      "Ġsocial": 1041,
      "Ġeveryone": 1042,
      "Ġfasc": 1043,
      "Ġart": 1044,
      "Ġbecause": 1045,
      "Ġsimilar": 1046,
      "Ġschool": 1047,
      "Ġpop": 1048,
      "âĢĶ": 1049,
      "ets": 1050,
      "izing": 1051,
      "vely": 1052,
      "Ġoff": 1053,
      "Ġmin": 1054,
      "tice": 1055,
      "Ġjour": 1056,
      "ked": 1057,
      "ning": 1058,
      "Ġspecial": 1059,
      "Ġye": 1060,
      "aving": 1061,
      "Ġques": 1062,
      "Ġshow": 1063,
      "Ġgener": 1064,
      "pec": 1065,
      "Ġhistor": 1066,
      "lish": 1067,
      "uch": 1068,
      "Ġacross": 1069,
      "Ġskill": 1070,
      "Ġinstead": 1071,
      "gin": 1072,
      "Ġfood": 1073,
      "Ġlong": 1074,
      "ability": 1075,
      "ected": 1076,
      "ress": 1077,
      "Ġ3": 1078,
      "tit": 1079,
      "Ġsometimes": 1080,
      "Ġbased": 1081,
      "uth": 1082,
      "Ġindividuals": 1083,
      "Ġtre": 1084,
      "Ġclass": 1085,
      "Ġused": 1086,
      "Ġcar": 1087,
      "Ġpass": 1088,
      "Ġequ": 1089,
      "Ġagain": 1090,
      "Ġprof": 1091,
      "Ġdiscuss": 1092,
      "Ġsound": 1093,
      "Ġdiscover": 1094,
      "self": 1095,
      "Ġarti": 1096,
      "00": 1097,
      "Ġexperiences": 1098,
      "ination": 1099,
      "iss": 1100,
      "sts": 1101,
      "ances": 1102,
      "Ġ'": 1103,
      "Ġanal": 1104,
      "Ġcho": 1105,
      "Ġpractic": 1106,
      "Ġdon": 1107,
      "ribut": 1108,
      "Ġwater": 1109,
      "Ġsever": 1110,
      "ney": 1111,
      "els": 1112,
      "Ġdivers": 1113,
      "Ġhuman": 1114,
      "ization": 1115,
      "Ġbecome": 1116,
      "Ġhand": 1117,
      "Ġcle": 1118,
      "Ġiss": 1119,
      "Ġfascinating": 1120,
      "Ġthroughout": 1121,
      "ĠĠĠ": 1122,
      "Ġcontin": 1123,
      "par": 1124,
      "Ġcri": 1125,
      "step": 1126,
      "Ġprogr": 1127,
      ":**": 1128,
      "Ġaw": 1129,
      "Ġmove": 1130,
      "Ġ=": 1131,
      "itional": 1132,
      "Ġsaf": 1133,
      "tle": 1134,
      "line": 1135,
      "raph": 1136,
      "Ġteach": 1137,
      "Ġprovid": 1138,
      "ix": 1139,
      "aking": 1140,
      "li": 1141,
      "Ġknown": 1142,
      ",\"": 1143,
      "Ġincluding": 1144,
      "Ġmost": 1145,
      "Ġless": 1146,
      "sel": 1147,
      "Ġent": 1148,
      "ertain": 1149,
      "Ġbus": 1150,
      "iques": 1151,
      "come": 1152,
      "iew": 1153,
      "Ġalong": 1154,
      "Ġinfl": 1155,
      "Ġtechniques": 1156,
      "Ġsmall": 1157,
      "Ġcru": 1158,
      "Ġtowards": 1159,
      "ods": 1160,
      "ins": 1161,
      "yth": 1162,
      "Ġmem": 1163,
      "Ġmade": 1164,
      "Ġele": 1165,
      "ital": 1166,
      "ied": 1167,
      "Ġturn": 1168,
      "Ġactiv": 1169,
      "Ġmuch": 1170,
      "aces": 1171,
      "Ġstrateg": 1172,
      "Ġappro": 1173,
      "Ġeduc": 1174,
      "omes": 1175,
      "Ġlaw": 1176,
      "Ġstep": 1177,
      "Ġcommunic": 1178,
      "tional": 1179,
      "Ġtake": 1180,
      "Ġbeen": 1181,
      "Ġcultural": 1182,
      "vers": 1183,
      "Ġstory": 1184,
      "Ġupon": 1185,
      "Ġrelations": 1186,
      "Ġmater": 1187,
      "Ġmeth": 1188,
      "Ġpat": 1189,
      "imagine": 1190,
      "ries": 1191,
      "Ġpart": 1192,
      "Ġchallenges": 1193,
      "Ġinformation": 1194,
      "Ġext": 1195,
      "Ġanim": 1196,
      "Ġincre": 1197,
      "Ġpres": 1198,
      "eric": 1199,
      "```": 1200,
      "Ġcrucial": 1201,
      "###": 1202,
      "Ġpotential": 1203,
      "Ġlanguage": 1204,
      "get": 1205,
      "Ġjourney": 1206,
      "Ġdem": 1207,
      "Ġhistorical": 1208,
      "ograph": 1209,
      "Ġfur": 1210,
      "Ġliter": 1211,
      "ols": 1212,
      "Ġonly": 1213,
      "Ġcontro": 1214,
      "Ġcreating": 1215,
      "Ġauth": 1216,
      "Ġrepresent": 1217,
      "ways": 1218,
      "Ġdr": 1219,
      "Ġdive": 1220,
      "Ġsens": 1221,
      "iel": 1222,
      "Ġwond": 1223,
      "ists": 1224,
      "Ġintro": 1225,
      "Ġenvironment": 1226,
      "ii": 1227,
      "Ġoffer": 1228,
      "ov": 1229,
      "Ġmaintain": 1230,
      "Ġemo": 1231,
      "Ġimpro": 1232,
      "'ll": 1233,
      "ental": 1234,
      "acter": 1235,
      "Ġatt": 1236,
      "selves": 1237,
      "ogn": 1238,
      "atures": 1239,
      "Ġonce": 1240,
      "Ġleg": 1241,
      "Ġmodern": 1242,
      "Ġav": 1243,
      "Ġlist": 1244,
      "Ġstudents": 1245,
      "Ġseveral": 1246,
      "Ġinflu": 1247,
      "ark": 1248,
      "ired": 1249,
      "Ġfamily": 1250,
      "Ġbusiness": 1251,
      "Ġways": 1252,
      "Ġdi": 1253,
      "az": 1254,
      "cc": 1255,
      "Ġkey": 1256,
      "Ġinsp": 1257,
      "Ġsti": 1258,
      "Ġbi": 1259,
      "Ġmul": 1260,
      "Ġstruct": 1261,
      "Ġperform": 1262,
      "Ġspe": 1263,
      "Ġmeans": 1264,
      "Ġrelationship": 1265,
      "ening": 1266,
      "Ġchang": 1267,
      "Ġproduc": 1268,
      "Ġinstance": 1269,
      "Ġwithout": 1270,
      "Ġact": 1271,
      "ants": 1272,
      "Ġaff": 1273,
      "ered": 1274,
      "Ġmon": 1275,
      "read": 1276,
      "uce": 1277,
      "Ġconf": 1278,
      "Ġend": 1279,
      "aining": 1280,
      "Ġcommunities": 1281,
      "ency": 1282,
      "Ġskills": 1283,
      "ately": 1284,
      "Ġposs": 1285,
      "Ġaccess": 1286,
      "Ġcommon": 1287,
      "Ġhelps": 1288,
      "Ġexpr": 1289,
      "Ġcontribut": 1290,
      "iec": 1291,
      "Ġsit": 1292,
      "agement": 1293,
      "Ġagainst": 1294,
      "ials": 1295,
      "Ġfurther": 1296,
      "ains": 1297,
      "Ġresources": 1298,
      "Ġameric": 1299,
      "Ġimm": 1300,
      "elcome": 1301,
      "Ġphys": 1302,
      "Ġconnec": 1303,
      "Ġyourself": 1304,
      "Ġinn": 1305,
      "Ġtypes": 1306,
      "Ġsystems": 1307,
      "Ġver": 1308,
      "ats": 1309,
      "up": 1310,
      "Ġcommunity": 1311,
      "lic": 1312,
      "Ġsuc": 1313,
      "Ġdep": 1314,
      "Ġseem": 1315,
      "Ġprovide": 1316,
      "jects": 1317,
      "Ġstrong": 1318,
      "Ġencour": 1319,
      "Ġissues": 1320,
      "atch": 1321,
      "Ġlocal": 1322,
      "Ġopport": 1323,
      "Ġhere": 1324,
      "ases": 1325,
      "Ġimpact": 1326,
      "Ġopportun": 1327,
      "Ġhome": 1328,
      "Ġself": 1329,
      "Ġmom": 1330,
      "ams": 1331,
      "Ġplace": 1332,
      "omen": 1333,
      "Ġalways": 1334,
      "by": 1335,
      "ending": 1336,
      "und": 1337,
      "Ġjo": 1338,
      "Ġappre": 1339,
      "Ġvalu": 1340,
      "acy": 1341,
      "avor": 1342,
      "Ġrelig": 1343,
      "Ġcharacter": 1344,
      "Ġtraditional": 1345,
      "Ġdra": 1346,
      "Ġel": 1347,
      "ili": 1348,
      "ython": 1349,
      "empor": 1350,
      "Ġchild": 1351,
      "Ġensure": 1352,
      "Ġcomb": 1353,
      "Ġbegin": 1354,
      "ĠĠĠĠĠĠĠĠ": 1355,
      "Ġrep": 1356,
      "Ġgover": 1357,
      "Ġpersonal": 1358,
      "bers": 1359,
      "avi": 1360,
      "Ġparticular": 1361,
      "ici": 1362,
      "Ġcome": 1363,
      "ooks": 1364,
      "Ġcod": 1365,
      "Ġcond": 1366,
      "Ġchange": 1367,
      "ergy": 1368,
      "Ġappreci": 1369,
      "fully": 1370,
      "Ġhim": 1371,
      "ective": 1372,
      "Ġoper": 1373,
      "ames": 1374,
      "atives": 1375,
      "Ġbody": 1376,
      "ased": 1377,
      "olution": 1378,
      "light": 1379,
      "Ġfut": 1380,
      "Ġret": 1381,
      "Ġenj": 1382,
      "Ġeas": 1383,
      "Ġdeep": 1384,
      "**:": 1385,
      "Ġdelve": 1386,
      "work": 1387,
      "itive": 1388,
      "Ġdecis": 1389,
      "ger": 1390,
      "Ġtop": 1391,
      "Ġpur": 1392,
      "Ġpattern": 1393,
      "arr": 1394,
      "Ġsupport": 1395,
      "Ġsym": 1396,
      "Ġpractices": 1397,
      "Ġcertain": 1398,
      "Ġyears": 1399,
      "Ġapproach": 1400,
      "ained": 1401,
      "Ġpoli": 1402,
      "Ġmakes": 1403,
      "Ġprev": 1404,
      "Ġnat": 1405,
      "ash": 1406,
      "Ġwhe": 1407,
      "Ġenergy": 1408,
      "Ġworks": 1409,
      "Ġaspects": 1410,
      "ret": 1411,
      "ilities": 1412,
      "Ġenjoy": 1413,
      "Ġindividual": 1414,
      "Ġstand": 1415,
      "Ġprin": 1416,
      "Ġsuccess": 1417,
      "equ": 1418,
      "Ġcomes": 1419,
      "Ġappe": 1420,
      "Ġpub": 1421,
      "Ġemp": 1422,
      "Ġconcept": 1423,
      "Ġdoc": 1424,
      "Ġtechnology": 1425,
      "Ġmind": 1426,
      "oph": 1427,
      "Ġstill": 1428,
      "emporary": 1429,
      "ier": 1430,
      "Ġbene": 1431,
      "Ġonline": 1432,
      "Ġdiverse": 1433,
      "Ġmulti": 1434,
      "ined": 1435,
      "Ġproble": 1436,
      "ength": 1437,
      "fort": 1438,
      "Ġsin": 1439,
      "Ġpiec": 1440,
      "Ġhaving": 1441,
      "Ġexperience": 1442,
      "Ġidentif": 1443,
      "duce": 1444,
      "Ġve": 1445,
      "Ġpain": 1446,
      "Ġmet": 1447,
      "Ġgroup": 1448,
      "ited": 1449,
      "elling": 1450,
      "Ġcontext": 1451,
      "Ġest": 1452,
      "Ġrev": 1453,
      "Ġproper": 1454,
      "Ġbehavi": 1455,
      "Ġpromot": 1456,
      "iction": 1457,
      "Ġevents": 1458,
      "ological": 1459,
      "Ġlove": 1460,
      "Ġmark": 1461,
      "Ġfactors": 1462,
      "Ġes": 1463,
      "Ġallows": 1464,
      "Ġvaluable": 1465,
      "Ġrele": 1466,
      "Ġnon": 1467,
      "ared": 1468,
      "Ġrespons": 1469,
      "Ġnor": 1470,
      "Ġfuture": 1471,
      "Ġguid": 1472,
      "Ġaim": 1473,
      "Ġfill": 1474,
      "Ġmag": 1475,
      "ically": 1476,
      "fs": 1477,
      "ject": 1478,
      "Ġdire": 1479,
      "Ġlives": 1480,
      "Ġgovern": 1481,
      "Ġmust": 1482,
      "âĢĻ": 1483,
      "Ġ&": 1484,
      "Ġfost": 1485,
      "asing": 1486,
      "abor": 1487,
      "Ġstudy": 1488,
      "Ġrecogn": 1489,
      "Ġtit": 1490,
      "Ġ19": 1491,
      "Ġgood": 1492,
      "Ġmaterials": 1493,
      "Ġtools": 1494,
      "Ġspace": 1495,
      "Ġwar": 1496,
      "Ġcool": 1497,
      "Ġgreat": 1498,
      "Ġinves": 1499,
      "Ġlar": 1500,
      "Ġlevel": 1501,
      "Ġcompan": 1502,
      "Ġkind": 1503,
      "ests": 1504,
      "Ġbig": 1505,
      "Ġelements": 1506,
      "Ġter": 1507,
      "erv": 1508,
      "Ġopen": 1509,
      "oms": 1510,
      "Ġsociety": 1511,
      "Ġcritical": 1512,
      "Ġ$": 1513,
      "Ġyoun": 1514,
      "utions": 1515,
      "Ġwa": 1516,
      "Ġinte": 1517,
      "Ġcontemporary": 1518,
      "Ġdevelopment": 1519,
      "Ġapplic": 1520,
      "Ġquestions": 1521,
      "Ġlight": 1522,
      "Ġgiv": 1523,
      "ules": 1524,
      "Ġstrategies": 1525,
      "Ġperspec": 1526,
      "Ġcontrol": 1527,
      "ots": 1528,
      "Ġcam": 1529,
      "Ġuntil": 1530,
      "Ġnear": 1531,
      "Ġbuilding": 1532,
      "Ġpatterns": 1533,
      "pts": 1534,
      "ids": 1535,
      "ner": 1536,
      "pite": 1537,
      "ters": 1538,
      "lying": 1539,
      "idd": 1540,
      "Ġsupp": 1541,
      "te": 1542,
      "Ġsw": 1543,
      "Ġinclude": 1544,
      "tively": 1545,
      "Ġocc": 1546,
      "Ġadvent": 1547,
      "Ġdraw": 1548,
      "ted": 1549,
      "Ġfig": 1550,
      "ooking": 1551,
      "Ġcolor": 1552,
      "Ġharm": 1553,
      "Ġmaybe": 1554,
      "Ġcommunication": 1555,
      "Ġthree": 1556,
      "Ġsimple": 1557,
      "Ġsetting": 1558,
      "ah": 1559,
      "Ġer": 1560,
      "Ġmusic": 1561,
      "bob": 1562,
      "Ġcal": 1563,
      "usion": 1564,
      "Ġcentur": 1565,
      "Ġlay": 1566,
      "acters": 1567,
      "Ġcoll": 1568,
      "Ġregard": 1569,
      "Ġglob": 1570,
      "me": 1571,
      "Ġnet": 1572,
      "Ġorig": 1573,
      "ablish": 1574,
      "Ġworking": 1575,
      "Ġeverything": 1576,
      "Ġtype": 1577,
      "Ġnatural": 1578,
      "Ġecon": 1579,
      "ecess": 1580,
      "Ġaddress": 1581,
      "Ġeconom": 1582,
      "ĊĠĠĠ": 1583,
      "Ġcust": 1584,
      "ale": 1585,
      "Ġexact": 1586,
      "Ġcharacters": 1587,
      "Ġwrit": 1588,
      "Ġgrowth": 1589,
      "Ġopportunities": 1590,
      "soci": 1591,
      "Ġearly": 1592,
      "Ġpopular": 1593,
      "ma": 1594,
      "yn": 1595,
      "inary": 1596,
      "Ġfiel": 1597,
      "Ġz": 1598,
      "Ġbro": 1599,
      "Ġliving": 1600,
      "Ġenh": 1601,
      "Ġ4": 1602,
      "Ġnav": 1603,
      "Ġdev": 1604,
      "Ġimportance": 1605,
      "ration": 1606,
      "Ġdig": 1607,
      "Ġculture": 1608,
      "Ġair": 1609,
      "Ġiniti": 1610,
      "Ġyet": 1611,
      "Ġpractice": 1612,
      "auti": 1613,
      "eper": 1614,
      "Ġmess": 1615,
      "Ġmanagement": 1616,
      "Ġestablish": 1617,
      "Ġassoci": 1618,
      "Ġadap": 1619,
      "Ġmeas": 1620,
      "Ġthought": 1621,
      "ledge": 1622,
      "Ġscienti": 1623,
      "Ġeducation": 1624,
      "my": 1625,
      "Ġey": 1626,
      "aps": 1627,
      "ploy": 1628,
      "esting": 1629,
      "Ġhard": 1630,
      "Ġris": 1631,
      "ables": 1632,
      "ren": 1633,
      "alice": 1634,
      "Ġnature": 1635,
      "ults": 1636,
      "Ġsince": 1637,
      "her": 1638,
      "Ġtri": 1639,
      "Ġyoung": 1640,
      "Ġintegr": 1641,
      "Ġbal": 1642,
      "Ġold": 1643,
      "Ġinvolves": 1644,
      "ators": 1645,
      "oss": 1646,
      "Ġdeeper": 1647,
      "Ġprim": 1648,
      "Ġmeet": 1649,
      "Ġscience": 1650,
      "Ġexpress": 1651,
      "Ġinnov": 1652,
      "ake": 1653,
      "xt": 1654,
      "Ġfre": 1655,
      "Ġfavor": 1656,
      "Ġstarted": 1657,
      "com": 1658,
      "istic": 1659,
      "--------------------------------": 1660,
      "Ġconnections": 1661,
      "Ġill": 1662,
      "Ġ20": 1663,
      "Ġvalues": 1664,
      "Ġbenef": 1665,
      "?\"": 1666,
      "have": 1667,
      "amed": 1668,
      "cient": 1669,
      "Ġrelationships": 1670,
      "Ġmen": 1671,
      "Ġdecid": 1672,
      "Ġgroups": 1673,
      "tives": 1674,
      "Ġemb": 1675,
      "Ġneeds": 1676,
      "ef": 1677,
      "Ġcaus": 1678,
      "Ġpast": 1679,
      "sh": 1680,
      "ened": 1681,
      "Ġsurround": 1682,
      "Ġleading": 1683,
      "res": 1684,
      "Ġful": 1685,
      "Ġancient": 1686,
      "Ġpolic": 1687,
      "Ġprofession": 1688,
      "Ġconditions": 1689,
      "Ġexactly": 1690,
      "aries": 1691,
      "Ġreach": 1692,
      "ush": 1693,
      "Ġshould": 1694,
      "Ġpress": 1695,
      "put": 1696,
      "Ġanaly": 1697,
      "Ġwelcome": 1698,
      "Ġhold": 1699,
      "Ġnecess": 1700,
      "Ġchr": 1701,
      "Ġlittle": 1702,
      "gu": 1703,
      ".,": 1704,
      "cap": 1705,
      "ugg": 1706,
      "igen": 1707,
      "Ġcollec": 1708,
      "Ġobs": 1709,
      "ced": 1710,
      "Ġeu": 1711,
      "Ġnext": 1712,
      "Ġaddition": 1713,
      "Ġprinci": 1714,
      "Ġnavig": 1715,
      "Ġcra": 1716,
      "aling": 1717,
      "ane": 1718,
      "Ġlim": 1719,
      "Ġge": 1720,
      "Ġbeauti": 1721,
      "Ġvisual": 1722,
      "Ġsuper": 1723,
      "Ġwords": 1724,
      "Ġemerg": 1725,
      "Ġwhether": 1726,
      "Ġsame": 1727,
      "Ġrefers": 1728,
      "Ġspecifically": 1729,
      "Ġtalk": 1730,
      "Ġsun": 1731,
      "Ġtry": 1732,
      "Ġarch": 1733,
      "Ġserv": 1734,
      "Ġhumans": 1735,
      "Ġmethods": 1736,
      "Ġreturn": 1737,
      "oney": 1738,
      "Ġinterac": 1739,
      "Ġbehind": 1740,
      "Ġshared": 1741,
      "orpor": 1742,
      "Ġsharing": 1743,
      "Ġtitle": 1744,
      "ends": 1745,
      "Ġclos": 1746,
      "Ġpublic": 1747,
      "Ġdespite": 1748,
      "Ġliterature": 1749,
      "Ġcode": 1750,
      "ground": 1751,
      "Ġda": 1752,
      "Ġexist": 1753,
      "Ġaway": 1754,
      "Ġpati": 1755,
      "Ġmix": 1756,
      "Ġlands": 1757,
      "Ġperi": 1758,
      "Ġnarr": 1759,
      "ells": 1760,
      "Ġemploy": 1761,
      "Ġthemselves": 1762,
      "rope": 1763,
      "Ġfilled": 1764,
      "ios": 1765,
      "Ġwal": 1766,
      "Ġknowledge": 1767,
      "Ġpowerful": 1768,
      "Ġactivities": 1769,
      "Ġsitu": 1770,
      "Ġphysical": 1771,
      "Ġprep": 1772,
      "Ġsounds": 1773,
      "Ġwomen": 1774,
      "Ġbest": 1775,
      "Ġmil": 1776,
      "ches": 1777,
      "Ġhous": 1778,
      "Ġpresent": 1779,
      "cl": 1780,
      "Ġstrength": 1781,
      "Ġintern": 1782,
      "ibility": 1783,
      "Ġdeterm": 1784,
      "Ġcomput": 1785,
      "ender": 1786,
      "anced": 1787,
      "ems": 1788,
      "Ġsure": 1789,
      "Ġdesc": 1790,
      "Ġconcern": 1791,
      "atic": 1792,
      "Ġ*": 1793,
      "Ġchanges": 1794,
      "tention": 1795,
      "ording": 1796,
      "ails": 1797,
      "Ġdirect": 1798,
      "pos": 1799,
      "inal": 1800,
      "erous": 1801,
      "Ġareas": 1802,
      "Ġpict": 1803,
      "Ġvir": 1804,
      "Ġbecame": 1805,
      "how": 1806,
      "Ġdiv": 1807,
      "Ġones": 1808,
      "Ġenough": 1809,
      "Ġpred": 1810,
      "Ġidentity": 1811,
      "Ġach": 1812,
      "orts": 1813,
      "Ġfund": 1814,
      "ulations": 1815,
      "azing": 1816,
      "port": 1817,
      "sy": 1818,
      "Ġsty": 1819,
      "Ġrest": 1820,
      "Ġgoing": 1821,
      "Ġconcepts": 1822,
      "Ġmeaning": 1823,
      "Ġfavorite": 1824,
      "Ġmach": 1825,
      "ecting": 1826,
      "ulation": 1827,
      "Ġanimals": 1828,
      "man": 1829,
      "Ġcity": 1830,
      "Ġheart": 1831,
      "Ġmodel": 1832,
      "like": 1833,
      "Ġpri": 1834,
      "Ġrun": 1835,
      "amm": 1836,
      "ery": 1837,
      "Ġspir": 1838,
      "ump": 1839,
      "izations": 1840,
      "Ġincorpor": 1841,
      "Ġeurope": 1842,
      "Ġbeautiful": 1843,
      "but": 1844,
      "ew": 1845,
      "go": 1846,
      "ral": 1847,
      "Ġsal": 1848,
      "aged": 1849,
      "Ġisn": 1850,
      "Ġheard": 1851,
      "Ġstay": 1852,
      "Ġclear": 1853,
      "Ġdecided": 1854,
      "Ġgame": 1855,
      "Ġquick": 1856,
      "Ġinsights": 1857,
      "phas": 1858,
      "care": 1859,
      "Ġbooks": 1860,
      "Ġnamed": 1861,
      "Ġcontribute": 1862,
      "Ġcollabor": 1863,
      "Ġachie": 1864,
      "Ġstar": 1865,
      "Ġinside": 1866,
      "Ġparticip": 1867,
      "Ġstructures": 1868,
      "Ġpap": 1869,
      "Ġeth": 1870,
      "ires": 1871,
      "Ġforms": 1872,
      "Ġcompon": 1873,
      "Ġpolitical": 1874,
      "Ġce": 1875,
      "what": 1876,
      "Ġsafe": 1877,
      "Ġland": 1878,
      "Ġtra": 1879,
      "Ġcontinu": 1880,
      "af": 1881,
      "Ġtrust": 1882,
      "Ġindust": 1883,
      "Ġoverall": 1884,
      "Ġthinking": 1885,
      "Ġtransform": 1886,
      "Ġx": 1887,
      "oring": 1888,
      "Ġec": 1889,
      "Ġelec": 1890,
      "irc": 1891,
      "Ġcultures": 1892,
      "Ġfollowing": 1893,
      "Ġanalyz": 1894,
      "more": 1895,
      "Ġ5": 1896,
      "Ġinf": 1897,
      "idence": 1898,
      "Ġincred": 1899,
      "Ġchoose": 1900,
      "Ġimprove": 1901,
      "io": 1902,
      "yond": 1903,
      "Ġsing": 1904,
      "Ġstates": 1905,
      "Ġevent": 1906,
      "Ġamerican": 1907,
      "bs": 1908,
      "vity": 1909,
      "Ġfiction": 1910,
      "lement": 1911,
      "ension": 1912,
      "Ġbehavior": 1913,
      "Ġprinciples": 1914,
      "ients": 1915,
      "Ġmental": 1916,
      "acing": 1917,
      "Ġconfl": 1918,
      "Ġaccording": 1919,
      "Ġallowing": 1920,
      "Ġmultiple": 1921,
      "!\"": 1922,
      "uter": 1923,
      "Ġcase": 1924,
      "Ġrules": 1925,
      "Ġunivers": 1926,
      "Ġtimes": 1927,
      "Ġidea": 1928,
      "Ġchildren": 1929,
      "Ġadditionally": 1930,
      "eness": 1931,
      "Ġindigen": 1932,
      "Ġglobal": 1933,
      "ny": 1934,
      "Ġfeatures": 1935,
      "ounter": 1936,
      "Ġeffici": 1937,
      "Ġminim": 1938,
      "Ġing": 1939,
      "Ġtas": 1940,
      "ones": 1941,
      "ises": 1942,
      "Ġphot": 1943,
      "Ġbring": 1944,
      "Ġensuring": 1945,
      "Ġintroduction": 1946,
      "Ġfil": 1947,
      "ards": 1948,
      "Ġperf": 1949,
      "he": 1950,
      "Ġrather": 1951,
      "Ġview": 1952,
      "Ġattention": 1953,
      "Ġsymb": 1954,
      "Ġtem": 1955,
      "Ġbook": 1956,
      "Ġmath": 1957,
      "Ġideas": 1958,
      "Ġplays": 1959,
      "Ġconsequ": 1960,
      "Ġshape": 1961,
      "outs": 1962,
      "Ġbar": 1963,
      "Ġbegan": 1964,
      "Ġworry": 1965,
      "Ġstrugg": 1966,
      "Ġdoing": 1967,
      "Ġindigenous": 1968,
      "Ġ0": 1969,
      "Ġcame": 1970,
      "Ġur": 1971,
      "Ġgive": 1972,
      "ason": 1973,
      "Ġintric": 1974,
      "Ġparts": 1975,
      "Ġconsist": 1976,
      "Ġphil": 1977,
      "Ġlearned": 1978,
      "Ġtraditions": 1979,
      "Ġclean": 1980,
      "Ġenvironmental": 1981,
      "Ġrich": 1982,
      "avel": 1983,
      "Ġregion": 1984,
      "Ġvalue": 1985,
      "Ġfeelings": 1986,
      "Ġnumber": 1987,
      "Ġbeliefs": 1988,
      "Ġrequire": 1989,
      "Ġhy": 1990,
      "Ġrespect": 1991,
      "Ġcentury": 1992,
      "'ve": 1993,
      "mm": 1994,
      "Ġfa": 1995,
      "Ġconvers": 1996,
      "Ġlibr": 1997,
      "ock": 1998,
      "Ġthoughts": 1999,
      "Ġtreat": 2000,
      "Ġcustom": 2001,
      "..": 2002,
      "python": 2003,
      "oman": 2004,
      "Ġplants": 2005,
      "Ġfinan": 2006,
      "Ġcountry": 2007,
      "Ġartists": 2008,
      "Ġmarket": 2009,
      "ek": 2010,
      "onic": 2011,
      "Ġcirc": 2012,
      "roduction": 2013,
      "Ġreduc": 2014,
      "Ġenti": 2015,
      "ense": 2016,
      "Ġleaders": 2017,
      "Ġreligious": 2018,
      "enge": 2019,
      "Ġhop": 2020,
      "Ġanalys": 2021,
      "Ġproviding": 2022,
      "gen": 2023,
      "esh": 2024,
      "reh": 2025,
      "Ġflow": 2026,
      "Ġemphas": 2027,
      "Ġvari": 2028,
      "Ġchallenging": 2029,
      "Ġdistin": 2030,
      "Ġcountries": 2031,
      "Ġsimilarly": 2032,
      "Ġdyn": 2033,
      "Ġsust": 2034,
      "Ġamazing": 2035,
      "Ġexamples": 2036,
      "Ġfamil": 2037,
      "Ġreaders": 2038,
      "Ġassociated": 2039,
      "ians": 2040,
      "onstr": 2041,
      "iring": 2042,
      "Ġbeyond": 2043,
      "Ġresult": 2044,
      "Ġnovel": 2045,
      "ank": 2046,
      "Ġstor": 2047,
      "Ġcompreh": 2048,
      "Ġmatter": 2049,
      "Ġidentify": 2050,
      "Ġcomputer": 2051,
      "Ġsignificance": 2052,
      "Ġearth": 2053,
      "Ġsam": 2054,
      "Ġred": 2055,
      "Ġinstr": 2056,
      "Ġauthor": 2057,
      "Ġlandscap": 2058,
      "Ġperfect": 2059,
      "iny": 2060,
      "Ġnational": 2061,
      "Ġinterest": 2062,
      "Ġavail": 2063,
      "Ġelectr": 2064,
      "iver": 2065,
      "Ġsay": 2066,
      "ectively": 2067,
      "Ġrece": 2068,
      "Ġgames": 2069,
      "Ġtaking": 2070,
      "Ġther": 2071,
      "Ġsl": 2072,
      "Ġline": 2073,
      "Ġconstr": 2074,
      "ource": 2075,
      "Ġsugg": 2076,
      "Ġexamining": 2077,
      "Ġperspectives": 2078,
      "life": 2079,
      "oes": 2080,
      "Ġaud": 2081,
      "Ġpay": 2082,
      "Ġquality": 2083,
      "Ġfaced": 2084,
      "Ġincreasing": 2085,
      "Ġappreciate": 2086,
      "Ġprevent": 2087,
      "Ġtherap": 2088,
      "Ġfar": 2089,
      "Ġdre": 2090,
      "Ġground": 2091,
      "Ġvo": 2092,
      "Ġbackground": 2093,
      "Ġmaintaining": 2094,
      "Ġdigital": 2095,
      "Ġnecessary": 2096,
      "Ġspirit": 2097,
      "ints": 2098,
      "Ġmoney": 2099,
      "Ġgard": 2100,
      "urs": 2101,
      "Ġregular": 2102,
      "ancing": 2103,
      "Ġquestion": 2104,
      "Ġextra": 2105,
      "ax": 2106,
      "Ġsou": 2107,
      "lecting": 2108,
      "Ġcover": 2109,
      "Ġchallenge": 2110,
      "ont": 2111,
      "Ġshort": 2112,
      "Ġhead": 2113,
      "Ġsurf": 2114,
      "Ġsafety": 2115,
      "Ġdecisions": 2116,
      "Ġingred": 2117,
      "Ġfinancial": 2118,
      "ially": 2119,
      "aster": 2120,
      "Ġfew": 2121,
      "Ġhealthcare": 2122,
      "Ġsecond": 2123,
      "Ġbreak": 2124,
      "Ġnarratives": 2125,
      "bo": 2126,
      "ient": 2127,
      "xim": 2128,
      "Ġpsy": 2129,
      "Ġlived": 2130,
      "Ġexperienc": 2131,
      "Ġpost": 2132,
      "Ġengaging": 2133,
      "Ġprocesses": 2134,
      "introduction": 2135,
      "Ġregarding": 2136,
      "Ġfield": 2137,
      "Ġpsych": 2138,
      "Ġutil": 2139,
      "Ġteam": 2140,
      "Ġreading": 2141,
      "Ġpreser": 2142,
      "Ġbenefits": 2143,
      "land": 2144,
      "Ġsoft": 2145,
      "Ġinterp": 2146,
      "Ġrecord": 2147,
      "Ġplaying": 2148,
      "Ġaspect": 2149,
      "orn": 2150,
      "Ġet": 2151,
      "key": 2152,
      "Ġtrying": 2153,
      "Ġarea": 2154,
      "Ġexamine": 2155,
      "Ġwanted": 2156,
      "Ġemotions": 2157,
      "Ġparticularly": 2158,
      "Ġsustain": 2159,
      "ply": 2160,
      "tig": 2161,
      "Ġtheory": 2162,
      "Ġdri": 2163,
      "Ġcomfort": 2164,
      "Ġcontr": 2165,
      "Ġdoesn": 2166,
      "Ġshaping": 2167,
      "ography": 2168,
      "Ġdocu": 2169,
      "Ġapplications": 2170,
      "oid": 2171,
      "erc": 2172,
      "Ġciv": 2173,
      "Ġface": 2174,
      "Ġvi": 2175,
      "Ġabs": 2176,
      "Ġneeded": 2177,
      "Ġpositive": 2178,
      "Ġdesigned": 2179,
      "Ġmedic": 2180,
      "Ġcontinue": 2181,
      "Ġdaily": 2182,
      "Ġanalysis": 2183,
      "Ġtext": 2184,
      "Ġproject": 2185,
      "Ġimag": 2186,
      "Ġcreated": 2187,
      "Ġprefer": 2188,
      "Ġlessons": 2189,
      "Ġmembers": 2190,
      "Ġsense": 2191,
      "Ġmor": 2192,
      "though": 2193,
      "Ġnut": 2194,
      "Ġsex": 2195,
      "ensive": 2196,
      "Ġtakes": 2197,
      "Ġpossible": 2198,
      "Ġrelev": 2199,
      "Ġincredible": 2200,
      "):": 2201,
      "Ġsqu": 2202,
      "works": 2203,
      "Ġlarge": 2204,
      "Ġlevels": 2205,
      "Ġfamilies": 2206,
      "Ġage": 2207,
      "ides": 2208,
      "cep": 2209,
      "Ġvers": 2210,
      "Ġleft": 2211,
      "osing": 2212,
      "Ġnever": 2213,
      "exts": 2214,
      "Ġgraph": 2215,
      "Ġserve": 2216,
      "know": 2217,
      "rim": 2218,
      "Ġju": 2219,
      "tivity": 2220,
      "Ġsmoo": 2221,
      "Ġtar": 2222,
      "Ġste": 2223,
      "osoph": 2224,
      "Ġembr": 2225,
      "ologies": 2226,
      "Ġengine": 2227,
      "before": 2228,
      "Ġcurr": 2229,
      "Ġsteps": 2230,
      "ges": 2231,
      "pro": 2232,
      "acks": 2233,
      "Ġasked": 2234,
      "Ġlive": 2235,
      "Ġdise": 2236,
      "Ġdemonstr": 2237,
      "Ġvery": 2238,
      "Ġcomponents": 2239,
      "ove": 2240,
      "tors": 2241,
      "Ġlast": 2242,
      "elt": 2243,
      "Ġcolon": 2244,
      "Ġstudies": 2245,
      "Ġinfluence": 2246,
      "Ġadapt": 2247,
      "Ġphilosoph": 2248,
      "Ġdynam": 2249,
      "Ġtip": 2250,
      "astic": 2251,
      "âĢĿ": 2252,
      "ĠâĢľ": 2253,
      "Ġscen": 2254,
      "Ġcele": 2255,
      "Ġhol": 2256,
      "Ġaction": 2257,
      "Ġthemes": 2258,
      "aste": 2259,
      "augh": 2260,
      "Ġlegal": 2261,
      "pe": 2262,
      "Ġouts": 2263,
      "Ġcore": 2264,
      "Ġled": 2265,
      "Ġgender": 2266,
      "ulate": 2267,
      "time": 2268,
      "Ġnumerous": 2269,
      "Ġmovement": 2270,
      "first": 2271,
      "Ġfarm": 2272,
      "Ġvide": 2273,
      "play": 2274,
      "Ġtraining": 2275,
      "Ġarr": 2276,
      "Ġcolors": 2277,
      "Ġsimply": 2278,
      "Ġsignificantly": 2279,
      "Ġquickly": 2280,
      "just": 2281,
      "Ġaut": 2282,
      "Ġord": 2283,
      "ously": 2284,
      "Ġoptim": 2285,
      "Ġcarefully": 2286,
      "Ġproblems": 2287,
      "val": 2288,
      "aced": 2289,
      "Ġgather": 2290,
      "Ġaltern": 2291,
      "Ġdeb": 2292,
      "Ġbecomes": 2293,
      "Ġinstall": 2294,
      "while": 2295,
      "Ġengage": 2296,
      "Ġmethod": 2297,
      "Ġgovernment": 2298,
      "Ġadventure": 2299,
      "Ġsources": 2300,
      "action": 2301,
      "ema": 2302,
      "Ġplat": 2303,
      "Ġhelping": 2304,
      "Ġwonder": 2305,
      "Ġelse": 2306,
      "ban": 2307,
      "Ġwatch": 2308,
      "oming": 2309,
      "Ġreally": 2310,
      "Ġstate": 2311,
      "Ġinteresting": 2312,
      "Ġtook": 2313,
      "Ġscientists": 2314,
      "Ġ201": 2315,
      "Ġavailable": 2316,
      "Ġcelebr": 2317,
      "of": 2318,
      "Ġ6": 2319,
      "isti": 2320,
      "Ġhands": 2321,
      "eck": 2322,
      "Ġalthough": 2323,
      "Ġimplement": 2324,
      "Ġlaws": 2325,
      "Ġpieces": 2326,
      "Ġeyes": 2327,
      "Ġperiod": 2328,
      "ipp": 2329,
      "Ġwarm": 2330,
      "Ġpan": 2331,
      "Ġbir": 2332,
      "ites": 2333,
      "Ġrights": 2334,
      "Ġobjects": 2335,
      "Ġoffers": 2336,
      "rom": 2337,
      "tis": 2338,
      "rel": 2339,
      "Ġspaces": 2340,
      "Ġunc": 2341,
      "Ġourselves": 2342,
      "Ġclo": 2343,
      "Ġ10": 2344,
      "Ġhappy": 2345,
      "pecially": 2346,
      "Ġbusinesses": 2347,
      "Ġperformance": 2348,
      "po": 2349,
      "Ġguide": 2350,
      "iliar": 2351,
      "__": 2352,
      "Ġpath": 2353,
      "Ġfair": 2354,
      "this": 2355,
      "Ġrad": 2356,
      "uck": 2357,
      "Ġskin": 2358,
      "Ġpoint": 2359,
      "Ġfostering": 2360,
      "Ġtemper": 2361,
      "Ġsmooth": 2362,
      "Ġfree": 2363,
      "Ġbound": 2364,
      "ising": 2365,
      "epend": 2366,
      "Ġconnection": 2367,
      "Ġinvolved": 2368,
      "Ġespecially": 2369,
      "Ġbroad": 2370,
      "Ġarchit": 2371,
      "Ġservices": 2372,
      "Ġpaper": 2373,
      "Ġingredients": 2374,
      "ners": 2375,
      "Ġrh": 2376,
      "Ġexerc": 2377,
      "Ġtravel": 2378,
      "Ġgetting": 2379,
      "Ġprotect": 2380,
      "Ġappear": 2381,
      "forts": 2382,
      "Ġafric": 2383,
      "Ġfinding": 2384,
      "Ġsuccessful": 2385,
      "Ġnutri": 2386,
      "fforts": 2387,
      "Ġefforts": 2388,
      "Ġlate": 2389,
      "Ġitems": 2390,
      "Ġsports": 2391,
      "Ġdifferences": 2392,
      "Ġdelic": 2393,
      "Ġemotional": 2394,
      "Ġpiece": 2395,
      "Ġbalance": 2396,
      "Ġfaith": 2397,
      "sw": 2398,
      "Ġlater": 2399,
      "Ġjew": 2400,
      "Ġfamous": 2401,
      "Ġeffective": 2402,
      "Ġfull": 2403,
      "ator": 2404,
      "itation": 2405,
      "Ġdam": 2406,
      "arily": 2407,
      "Ġcomplet": 2408,
      "Ġaccur": 2409,
      "Ġeffectively": 2410,
      "Ġmedical": 2411,
      "rig": 2412,
      "Ġtell": 2413,
      "Ġtest": 2414,
      "Ġside": 2415,
      "Ġput": 2416,
      "Ġpython": 2417,
      "Ġmic": 2418,
      "ident": 2419,
      "Ġextr": 2420,
      "atis": 2421,
      "Ġcreati": 2422,
      "Ġclim": 2423,
      "Ġbelieve": 2424,
      "Ġbodies": 2425,
      "ission": 2426,
      "Ġproblem": 2427,
      "ken": 2428,
      "Ġcut": 2429,
      "Ġwild": 2430,
      "Ġra": 2431,
      "ended": 2432,
      "Ġmoreover": 2433,
      "Ġblack": 2434,
      "Ġpromoting": 2435,
      "Ġoutside": 2436,
      "here": 2437,
      "ule": 2438,
      "Ġthre": 2439,
      "Ġwind": 2440,
      "atory": 2441,
      "athy": 2442,
      "Ġdiffic": 2443,
      "Ġcul": 2444,
      "Ġstat": 2445,
      "etal": 2446,
      "Ġgene": 2447,
      "Ġbreath": 2448,
      "Ġdecision": 2449,
      "Ġ7": 2450,
      "Ġfelt": 2451,
      "Ġgain": 2452,
      "ements": 2453,
      "Ġtrue": 2454,
      "Ġfresh": 2455,
      "Ġplant": 2456,
      "Ġdish": 2457,
      "Ġinstit": 2458,
      "Ġunited": 2459,
      "Ġhappens": 2460,
      "Ġentire": 2461,
      "Ġplatform": 2462,
      "Ġfant": 2463,
      "izes": 2464,
      "Ġcreative": 2465,
      "Ġmovements": 2466,
      "Ġwondered": 2467,
      "Ġchristi": 2468,
      "Ġhouse": 2469,
      "eds": 2470,
      "another": 2471,
      "utes": 2472,
      "Ġplaces": 2473,
      "Ġstress": 2474,
      "exp": 2475,
      "Ġwasn": 2476,
      "Ġwriting": 2477,
      "Ġmedia": 2478,
      "py": 2479,
      "Ġbat": 2480,
      "Ġlooking": 2481,
      "Ġgod": 2482,
      "Ġimage": 2483,
      "Ġjus": 2484,
      "Ġactions": 2485,
      "Ġsocietal": 2486,
      "Ġorganizations": 2487,
      "Ġtasks": 2488,
      "Ġfem": 2489,
      "istance": 2490,
      "ustr": 2491,
      "Ġstudying": 2492,
      "Ġinvolve": 2493,
      "Ġgrowing": 2494,
      "Ġresearchers": 2495,
      "iosity": 2496,
      "Ġconcerns": 2497,
      "hold": 2498,
      "wide": 2499,
      "Ġpu": 2500,
      "acts": 2501,
      "Ġneg": 2502,
      "itiz": 2503,
      "Ġresili": 2504,
      "Ġroom": 2505,
      "Ġfeeling": 2506,
      "Ġcurious": 2507,
      "Ġactivity": 2508,
      "Ġsurrounding": 2509,
      "Ġobser": 2510,
      "Ġachieve": 2511,
      "lo": 2512,
      "Ġwood": 2513,
      "alu": 2514,
      "Ġbud": 2515,
      "Ġhab": 2516,
      "Ġname": 2517,
      "Ġstre": 2518,
      "emic": 2519,
      "Ġansw": 2520,
      "ived": 2521,
      "Ġseeking": 2522,
      "Ġdidn": 2523,
      "Ġschools": 2524,
      "Ġavoid": 2525,
      "ug": 2526,
      "Ġpack": 2527,
      "Ġopp": 2528,
      "Ġche": 2529,
      "Ġbrain": 2530,
      "ropri": 2531,
      "Ġgenerations": 2532,
      "Ġencourage": 2533,
      "Ġeasy": 2534,
      "Ġresponsible": 2535,
      "iddle": 2536,
      "Ġhour": 2537,
      "uty": 2538,
      "cious": 2539,
      "Ġroles": 2540,
      "Ġworldwide": 2541,
      "Ġsaid": 2542,
      "Ġmyst": 2543,
      "Ġcuriosity": 2544,
      "Ġcivil": 2545,
      "Ġtiny": 2546,
      "itch": 2547,
      "edi": 2548,
      "Ġlines": 2549,
      "Ġcompared": 2550,
      "echan": 2551,
      "Ġloved": 2552,
      "Ġterr": 2553,
      "den": 2554,
      "ik": 2555,
      "Ġshif": 2556,
      "Ġspread": 2557,
      "isms": 2558,
      "Ġauthors": 2559,
      "Ġmoment": 2560,
      "Ġsingle": 2561,
      "Ġsexual": 2562,
      "view": 2563,
      "Ġvast": 2564,
      "ured": 2565,
      "ounts": 2566,
      "Ġnumbers": 2567,
      "Ġgiven": 2568,
      "ware": 2569,
      "xic": 2570,
      "Ġslow": 2571,
      "Ġfour": 2572,
      "Ġloss": 2573,
      "Ġreve": 2574,
      "Ġvol": 2575,
      "Ġprojects": 2576,
      "Ġresults": 2577,
      "Ġbasic": 2578,
      "Ġtypically": 2579,
      "Ġexploration": 2580,
      "Ġfunctions": 2581,
      "lesson": 2582,
      "Ġprograms": 2583,
      "Ġprovides": 2584,
      "ervation": 2585,
      "Ġprimary": 2586,
      "19": 2587,
      "Ġfit": 2588,
      "Ġbri": 2589,
      "Ġang": 2590,
      "uction": 2591,
      "Ġevalu": 2592,
      "Ġago": 2593,
      "Ġgreen": 2594,
      "Ġblood": 2595,
      "Ġwrite": 2596,
      "Ġvirt": 2597,
      "Ġpriv": 2598,
      "Ġintricate": 2599,
      "Ġdistinct": 2600,
      "Ġfo": 2601,
      "Ġfall": 2602,
      "Ġhar": 2603,
      "Ġproduction": 2604,
      "Ġjob": 2605,
      "Ġadm": 2606,
      "Ġconnect": 2607,
      "Ġhighlight": 2608,
      "Ġdeveloping": 2609,
      "Ġreflect": 2610,
      "Ġcompanies": 2611,
      "Ġrisk": 2612,
      "ton": 2613,
      "Ġir": 2614,
      "Ġmiddle": 2615,
      "omm": 2616,
      "---": 2617,
      "rix": 2618,
      "ops": 2619,
      "ultural": 2620,
      "------------------------": 2621,
      "Ġsolutions": 2622,
      "Ġdiscovered": 2623,
      "Ġtopics": 2624,
      "Ġdescrib": 2625,
      "Ġjustice": 2626,
      "dom": 2627,
      "ink": 2628,
      "Ġcook": 2629,
      "edic": 2630,
      "ision": 2631,
      "Ġstri": 2632,
      "Ġvib": 2633,
      "use": 2634,
      "Ġability": 2635,
      "Ġaren": 2636,
      "Ġappropri": 2637,
      "tivating": 2638,
      "Ġhealthy": 2639,
      "Ġactually": 2640,
      "Ġcurrent": 2641,
      "Ġarchitect": 2642,
      "Ġcreativity": 2643,
      "eti": 2644,
      "Ġmis": 2645,
      "Ġrepl": 2646,
      "Ġrefer": 2647,
      "Ġrout": 2648,
      "ades": 2649,
      "Ġsurpr": 2650,
      "Ġexciting": 2651,
      "Ġtur": 2652,
      "ony": 2653,
      "Ġalice": 2654,
      "Ġmov": 2655,
      "Ġ18": 2656,
      "Ġrequires": 2657,
      "Ġterms": 2658,
      "side": 2659,
      "Ġtable": 2660,
      "Ġmechan": 2661,
      "etry": 2662,
      "Ġinters": 2663,
      "Ġseen": 2664,
      "Ġcolle": 2665,
      "ĠĠĠĠĠĠĠ": 2666,
      "Ġcouldn": 2667,
      "Ġinvolving": 2668,
      "Ġinvestig": 2669,
      "Ġfigures": 2670,
      "Ġcalc": 2671,
      "Ġmention": 2672,
      "Ġpressure": 2673,
      "expected": 2674,
      "ee": 2675,
      "sp": 2676,
      "elines": 2677,
      "urity": 2678,
      "Ġconven": 2679,
      "Ġonto": 2680,
      "Ġali": 2681,
      "ighb": 2682,
      "Ġcontain": 2683,
      "Ġindepend": 2684,
      "Ġprec": 2685,
      "Ġagre": 2686,
      "Ġensures": 2687,
      "Ġdiversity": 2688,
      "Ġrepresentation": 2689,
      "Ġempathy": 2690,
      "Ġoccur": 2691,
      "Ġsituations": 2692,
      "Ġmachine": 2693,
      "Ġincorporating": 2694,
      "Ġspiritual": 2695,
      "bre": 2696,
      "hood": 2697,
      "Ġsat": 2698,
      "Ġsection": 2699,
      "Ġcu": 2700,
      "Ġwis": 2701,
      "Ġmr": 2702,
      "Ġexch": 2703,
      "Ġanti": 2704,
      "Ġimages": 2705,
      "Ġheav": 2706,
      "Ġargu": 2707,
      "lection": 2708,
      "Ġdiscrim": 2709,
      "Ġplayed": 2710,
      "Ġcapt": 2711,
      "Ġexpect": 2712,
      "Ġstoryt": 2713,
      "Ġincreased": 2714,
      "Ġnavigate": 2715,
      "Ġsil": 2716,
      "Ġcop": 2717,
      "Ġep": 2718,
      "Ġnight": 2719,
      "Ġneighb": 2720,
      "Ġkids": 2721,
      "Ġarri": 2722,
      "Ġclose": 2723,
      "Ġwhole": 2724,
      "Ġoptions": 2725,
      "Ġproducts": 2726,
      "Ġdrawing": 2727,
      "Ġeconomic": 2728,
      "Ġurban": 2729,
      "Ġaudi": 2730,
      "hn": 2731,
      "mon": 2732,
      "iment": 2733,
      "Ġframe": 2734,
      "Ġherit": 2735,
      "Ġremains": 2736,
      "Ġkeeping": 2737,
      "Ġpicture": 2738,
      "Ġhope": 2739,
      "?**": 2740,
      "rant": 2741,
      "Ġ+": 2742,
      "Ġport": 2743,
      "Ġsuit": 2744,
      "ute": 2745,
      "ung": 2746,
      "Ġtru": 2747,
      "umb": 2748,
      "Ġevolution": 2749,
      "Ġevidence": 2750,
      "Ġconsum": 2751,
      "Ġbecoming": 2752,
      "Ġbelong": 2753,
      "Ġencounter": 2754,
      "Ġpolicy": 2755,
      "onom": 2756,
      "Ġhor": 2757,
      "Ġtown": 2758,
      "Ġlab": 2759,
      "ify": 2760,
      "Ġunexpected": 2761,
      "when": 2762,
      "Ġfinally": 2763,
      "Ġaddressing": 2764,
      "bit": 2765,
      "ium": 2766,
      "Ġcooking": 2767,
      "ised": 2768,
      "Ġapply": 2769,
      "ished": 2770,
      "Ġeffects": 2771,
      "Ġdetails": 2772,
      "Ġshapes": 2773,
      "Ġequip": 2774,
      "Ġpromote": 2775,
      "Ġcompany": 2776,
      "Ġsettings": 2777,
      "Ġprofessional": 2778,
      "Ġincreasingly": 2779,
      "uing": 2780,
      "orting": 2781,
      "Ġask": 2782,
      "cies": 2783,
      "Ġcost": 2784,
      "Ġfamiliar": 2785,
      "Ġhappened": 2786,
      "Ġlanguages": 2787,
      "Ġprogress": 2788,
      "Ġmeasure": 2789,
      "Ġsurface": 2790,
      "Ġheritage": 2791,
      "ls": 2792,
      "pose": 2793,
      "Ġsize": 2794,
      "Ġcross": 2795,
      "Ġexh": 2796,
      "Ġforward": 2797,
      "Ġsumm": 2798,
      "ticed": 2799,
      "new": 2800,
      "Ġthanks": 2801,
      "Ġpolicies": 2802,
      "Ġstorytelling": 2803,
      "Ġreci": 2804,
      "Ġrange": 2805,
      "Ġuses": 2806,
      "Ġmanaging": 2807,
      "Ġgrand": 2808,
      "Ġposition": 2809,
      "Ġenvironments": 2810,
      "Ġconcl": 2811,
      "Ġchoices": 2812,
      "Ġteaching": 2813,
      "Ġmaterial": 2814,
      "Ġintroduc": 2815,
      "Ġstructure": 2816,
      "Ġmonit": 2817,
      "Ġenhance": 2818,
      "Ġcontinued": 2819,
      "ann": 2820,
      "Ġlow": 2821,
      "osp": 2822,
      "Ġunf": 2823,
      "Ġmaj": 2824,
      "Ġsaw": 2825,
      "Ġvisit": 2826,
      "Ġlooked": 2827,
      "Ġfrequ": 2828,
      "Ġconflic": 2829,
      "Ġrelevant": 2830,
      "Ġresilience": 2831,
      "making": 2832,
      "zz": 2833,
      "Ġalex": 2834,
      "Ġben": 2835,
      "Ġmill": 2836,
      "omin": 2837,
      "urance": 2838,
      "iration": 2839,
      "Ġconver": 2840,
      "Ġtrends": 2841,
      "Ġsoon": 2842,
      "ellow": 2843,
      "Ġque": 2844,
      "Ġremind": 2845,
      "akes": 2846,
      "Ġgets": 2847,
      "Ġartis": 2848,
      "based": 2849,
      "Ġgot": 2850,
      "ager": 2851,
      "Ġproduce": 2852,
      "Ġable": 2853,
      "Ġword": 2854,
      "Ġdefine": 2855,
      "Ġwritten": 2856,
      "Ġinterpret": 2857,
      "Ġvideo": 2858,
      "aves": 2859,
      "co": 2860,
      "haps": 2861,
      "ming": 2862,
      "ored": 2863,
      "Ġeg": 2864,
      "cept": 2865,
      "Ġgoals": 2866,
      "Ġspecies": 2867,
      "where": 2868,
      "ficial": 2869,
      "lier": 2870,
      "Ġrevolution": 2871,
      "idden": 2872,
      "Ġfigure": 2873,
      "not": 2874,
      "Ġsource": 2875,
      "Ġcateg": 2876,
      "Ġelect": 2877,
      "Ġgently": 2878,
      "Ġbea": 2879,
      "Ġplot": 2880,
      "rought": 2881,
      "Ġhigher": 2882,
      "Ġmoments": 2883,
      "Ġcausing": 2884,
      "Ġcomputers": 2885,
      "Ġsymbol": 2886,
      "Ġviol": 2887,
      "Ġtruly": 2888,
      "aim": 2889,
      "Ġfight": 2890,
      "ither": 2891,
      "Ġevol": 2892,
      "Ġhelped": 2893,
      "Ġprotection": 2894,
      "Ġearlier": 2895,
      "Ġplanning": 2896,
      "Ġshows": 2897,
      "Ġliterary": 2898,
      "Ġfurthermore": 2899,
      "Ġmessages": 2900,
      "Ġprofessionals": 2901,
      "Ġchristian": 2902,
      "Ġhours": 2903,
      "uits": 2904,
      "Ġ\\": 2905,
      "Ġsar": 2906,
      "Ġcause": 2907,
      "anti": 2908,
      "Ġattr": 2909,
      "Ġinterven": 2910,
      "Ġknowing": 2911,
      "Ġnoticed": 2912,
      "Ġenglish": 2913,
      "plications": 2914,
      "iii": 2915,
      "Ġinnovative": 2916,
      "Ġfundam": 2917,
      "Ġtherapy": 2918,
      "Ġsustainable": 2919,
      "Ġdifficult": 2920,
      "Ġterm": 2921,
      "Ġwall": 2922,
      "Ġul": 2923,
      "Ġnp": 2924,
      "ulting": 2925,
      "usive": 2926,
      "Ġintrig": 2927,
      "Ġcanad": 2928,
      "Ġbase": 2929,
      "Ġsurv": 2930,
      "Ġready": 2931,
      "Ġpossess": 2932,
      "Ġveget": 2933,
      "Ġguidelines": 2934,
      "Ġmessage": 2935,
      "Ġillustr": 2936,
      "Ġmathema": 2937,
      "Ġmentioned": 2938,
      "Ġtexts": 2939,
      "ina": 2940,
      "Ġbond": 2941,
      "Ġbrow": 2942,
      "Ġdedic": 2943,
      "istics": 2944,
      "ths": 2945,
      "ilt": 2946,
      "Ġstore": 2947,
      "Ġsud": 2948,
      "Ġinterests": 2949,
      "Ġitself": 2950,
      "Ġperhaps": 2951,
      "Ġadding": 2952,
      "why": 2953,
      "Ġpoints": 2954,
      "Ġnotable": 2955,
      "Ġrealized": 2956,
      "Ġexpos": 2957,
      "Ġinspired": 2958,
      "Ġoperations": 2959,
      "Ġcamp": 2960,
      "Ġcraf": 2961,
      "welcome": 2962,
      "ĊĠĠĠĠĠĠĠ": 2963,
      "alities": 2964,
      "Ġdial": 2965,
      "Ġhidden": 2966,
      "Ġnative": 2967,
      "Ġusually": 2968,
      "Ġheat": 2969,
      "Ġcompeti": 2970,
      "Ġamid": 2971,
      "Ġadvanced": 2972,
      "Ġpassion": 2973,
      "Ġlesson": 2974,
      "Ġaffect": 2975,
      "Ġapproaches": 2976,
      "under": 2977,
      "Ġthr": 2978,
      "rect": 2979,
      "Ġmass": 2980,
      "Ġlily": 2981,
      "actions": 2982,
      "Ġrac": 2983,
      "ching": 2984,
      "Ġabilities": 2985,
      "Ġpeace": 2986,
      "Ġbob": 2987,
      "Ġoutc": 2988,
      "Ġtechnologies": 2989,
      "Ġanyone": 2990,
      "hips": 2991,
      "Ġaccount": 2992,
      "being": 2993,
      "Ġlandscape": 2994,
      "ging": 2995,
      "Ġsand": 2996,
      "Ġstop": 2997,
      "andom": 2998,
      "Ġsequ": 2999,
      "Ġaimed": 3000,
      "Ġbeauty": 3001,
      "Ġsudden": 3002,
      "fact": 3003,
      "head": 3004,
      "ert": 3005,
      "eration": 3006,
      "Ġcy": 3007,
      "Ġcells": 3008,
      "Ġfab": 3009,
      "Ġbur": 3010,
      "Ġhot": 3011,
      "Ġreduce": 3012,
      "Ġvital": 3013,
      "ably": 3014,
      "Ġcompos": 3015,
      "Ġarm": 3016,
      "ensions": 3017,
      "Ġadvance": 3018,
      "Ġadvoc": 3019,
      "Ġrealm": 3020,
      "Ġsecure": 3021,
      "Ġmusc": 3022,
      "Ġyear": 3023,
      "Ġdiscussions": 3024,
      "Ġoffering": 3025,
      "Ġjohn": 3026,
      "Ġbroader": 3027,
      "Ġegyp": 3028,
      "eign": 3029,
      "Ġpal": 3030,
      "Ġdark": 3031,
      "Ġund": 3032,
      "Ġalg": 3033,
      "Ġrob": 3034,
      "Ġcoord": 3035,
      "Ġsyn": 3036,
      "Ġscre": 3037,
      "Ġadvant": 3038,
      "Ġconnected": 3039,
      "Ġdesigns": 3040,
      "Ġprogram": 3041,
      "Ġlistening": 3042,
      "ĠĠĠĠĠĠĠĠĠĠĠĠĠĠĠĠ": 3043,
      "Ġmagical": 3044,
      "Ġnetworks": 3045,
      "Ġcraft": 3046,
      "Ġindustry": 3047,
      "Ġlibrary": 3048,
      "Ġconflicts": 3049,
      "20": 3050,
      "esents": 3051,
      "Ġoil": 3052,
      "Ġhomes": 3053,
      "activity": 3054,
      "igr": 3055,
      "igration": 3056,
      "Ġtrade": 3057,
      "Ġcommit": 3058,
      "Ġmoving": 3059,
      "Ġquite": 3060,
      "orders": 3061,
      "Ġsecurity": 3062,
      "Ġrepresents": 3063,
      "Ġexpression": 3064,
      "Ġoriginal": 3065,
      "Ġstyle": 3066,
      "Ġtarget": 3067,
      "Ġamidst": 3068,
      "()": 3069,
      ".'": 3070,
      "hab": 3071,
      "Ġtou": 3072,
      "Ġhon": 3073,
      "Ġcreatures": 3074,
      "Ġschol": 3075,
      "venile": 3076,
      "Ġpracticing": 3077,
      "Ġturned": 3078,
      "Ġchanging": 3079,
      "Ġamerica": 3080,
      "Ġinternational": 3081,
      "Ġeventually": 3082,
      "Ġembracing": 3083,
      "Ġoutcomes": 3084,
      "Ġthus": 3085,
      "Ġinj": 3086,
      "Ġtool": 3087,
      "omp": 3088,
      "term": 3089,
      "entially": 3090,
      "Ġknows": 3091,
      "exam": 3092,
      "Ġsolid": 3093,
      "Ġgiving": 3094,
      "Ġeuropean": 3095,
      "Ġnovels": 3096,
      "Ġexperienced": 3097,
      "Ġmicro": 3098,
      "ae": 3099,
      "Ġsn": 3100,
      "Ġcitiz": 3101,
      "Ġnod": 3102,
      "irm": 3103,
      "Ġann": 3104,
      "Ġselect": 3105,
      "Ġfeature": 3106,
      "Ġwrong": 3107,
      "Ġdevices": 3108,
      "Ġeye": 3109,
      "Ġstarting": 3110,
      "Ġanalyze": 3111,
      "Ġdocument": 3112,
      "Ġdiscrimination": 3113,
      "Ġfabric": 3114,
      "Ġhom": 3115,
      "Ġalign": 3116,
      "illing": 3117,
      "Ġadjust": 3118,
      "Ġparents": 3119,
      "Ġcollect": 3120,
      "Ġphen": 3121,
      "Ġcenter": 3122,
      "Ġmatrix": 3123,
      "Ġshowc": 3124,
      "Ġreligion": 3125,
      "Ġbehaviors": 3126,
      "Ġconsequences": 3127,
      "Ġvibrant": 3128,
      "sc": 3129,
      "onse": 3130,
      "Ġfast": 3131,
      "Ġdays": 3132,
      "ilit": 3133,
      "amet": 3134,
      "ads": 3135,
      "que": 3136,
      "Ġexplained": 3137,
      "anging": 3138,
      "Ġgrad": 3139,
      "Ġanything": 3140,
      "Ġmodels": 3141,
      "Ġprocessing": 3142,
      "Ġfocusing": 3143,
      "Ġcritic": 3144,
      "Ġperspective": 3145,
      "Ġcollaboration": 3146,
      "Ġvirtual": 3147,
      "bon": 3148,
      "cent": 3149,
      "ption": 3150,
      "Ġsle": 3151,
      "Ġinput": 3152,
      "antly": 3153,
      "Ġsearch": 3154,
      "Ġseason": 3155,
      "Ġsoil": 3156,
      "Ġmanage": 3157,
      "Ġrecent": 3158,
      "Ġtransport": 3159,
      "Ġcaptivating": 3160,
      "Ġdiscussing": 3161,
      "Ġreview": 3162,
      "Ġinitial": 3163,
      "Ġestablished": 3164,
      "Ġdynamics": 3165,
      "Ġclimate": 3166,
      "Ġappropriate": 3167,
      "Ġphenomen": 3168,
      "*:": 3169,
      "Ġreality": 3170,
      "Ġtales": 3171,
      "Ġsubst": 3172,
      "Ġdefin": 3173,
      "Ġdiag": 3174,
      "Ġappreciation": 3175,
      "Ġboundaries": 3176,
      "Ġplatforms": 3177,
      "ball": 3178,
      "Ġswe": 3179,
      "ley": 3180,
      "Ġlog": 3181,
      "Ġlower": 3182,
      "through": 3183,
      "Ġstage": 3184,
      "Ġren": 3185,
      "Ġconve": 3186,
      "Ġfear": 3187,
      "Ġprote": 3188,
      "Ġmatters": 3189,
      "Ġmemory": 3190,
      "Ġproduct": 3191,
      "Ġjuvenile": 3192,
      "Ġscenar": 3193,
      "Ġking": 3194,
      "inter": 3195,
      "Ġbrought": 3196,
      "itary": 3197,
      "Ġlif": 3198,
      "Ġrap": 3199,
      "chapter": 3200,
      "ody": 3201,
      "Ġshar": 3202,
      "ellig": 3203,
      "Ġalongside": 3204,
      "Ġlisten": 3205,
      "Ġdepending": 3206,
      "Ġfoster": 3207,
      "Ġprimarily": 3208,
      "Ġemerged": 3209,
      "Ġcloser": 3210,
      "Ġsuggest": 3211,
      "Ġdelicious": 3212,
      "Ġ8": 3213,
      "inist": 3214,
      "Ġcat": 3215,
      "Ġconduc": 3216,
      "Ġcheck": 3217,
      "Ġweight": 3218,
      "Ġintellig": 3219,
      "Ġhear": 3220,
      "ought": 3221,
      "Ġrequired": 3222,
      "Ġinvest": 3223,
      "Ġanalyzing": 3224,
      "Ġequipment": 3225,
      "fin": 3226,
      "Ġtap": 3227,
      "Ġath": 3228,
      "Ġcer": 3229,
      "thes": 3230,
      "Ġsea": 3231,
      "Ġsepar": 3232,
      "ival": 3233,
      "Ġmanip": 3234,
      "Ġconstit": 3235,
      "Ġgoal": 3236,
      "ribution": 3237,
      "world": 3238,
      "Ġfoundation": 3239,
      "000": 3240,
      "Ġprovided": 3241,
      "Ġeasily": 3242,
      "Ġlarger": 3243,
      "Ġembark": 3244,
      "Ġrecords": 3245,
      "iet": 3246,
      "ru": 3247,
      "Ġdim": 3248,
      "aming": 3249,
      "ified": 3250,
      "Ġadop": 3251,
      "Ġeveryday": 3252,
      "Ġtechnique": 3253,
      "Ġserves": 3254,
      "Ġguidance": 3255,
      "Ġwriters": 3256,
      "Ġfields": 3257,
      "Ġpictures": 3258,
      "dis": 3259,
      "gre": 3260,
      "hus": 3261,
      "ye": 3262,
      "Ġtom": 3263,
      "Ġanx": 3264,
      "Ġwebs": 3265,
      "Ġarts": 3266,
      "Ġpassed": 3267,
      "Ġinspiration": 3268,
      "ready": 3269,
      "Ġcharacteristics": 3270,
      "Ġrecognize": 3271,
      "Ġrisks": 3272,
      "Ġreducing": 3273,
      "mal": 3274,
      "Ġsus": 3275,
      "Ġwit": 3276,
      "Ġpick": 3277,
      "Ġbad": 3278,
      "Ġlens": 3279,
      "there": 3280,
      "Ġgir": 3281,
      "Ġyes": 3282,
      "Ġusers": 3283,
      "Ġjud": 3284,
      "Ġadults": 3285,
      "Ġindic": 3286,
      "Ġroots": 3287,
      "ification": 3288,
      "Ġagric": 3289,
      "Ġtax": 3290,
      "Ġbuilt": 3291,
      "Ġgreater": 3292,
      "Ġpainting": 3293,
      "Ġlayers": 3294,
      "Ġmajor": 3295,
      "Ġartistic": 3296,
      "Ġrapid": 3297,
      "back": 3298,
      "cer": 3299,
      "des": 3300,
      "eth": 3301,
      "next": 3302,
      "Ġcities": 3303,
      "orith": 3304,
      "rem": 3305,
      "Ġfive": 3306,
      "Ġwhose": 3307,
      "apan": 3308,
      "Ġlies": 3309,
      "Ġcompass": 3310,
      "ocks": 3311,
      "Ġdeliver": 3312,
      "Ġsmaller": 3313,
      "Ġspeech": 3314,
      "Ġeasier": 3315,
      "Ġregardless": 3316,
      "Ġnetwork": 3317,
      "Ġinteractions": 3318,
      "Ġpreserving": 3319,
      "Ġmedicine": 3320,
      "Ġextract": 3321,
      "ding": 3322,
      "ring": 3323,
      "uff": 3324,
      "Ġhu": 3325,
      "Ġeating": 3326,
      "Ġeither": 3327,
      "Ġgained": 3328,
      "Ġrice": 3329,
      "Ġvia": 3330,
      "ibilities": 3331,
      "Ġremain": 3332,
      "Ġresponse": 3333,
      "Ġfacilit": 3334,
      "Ġassess": 3335,
      "Ġstronger": 3336,
      "Ġdeeply": 3337,
      "Ġnearby": 3338,
      "Ġscientific": 3339,
      "Ġsituation": 3340,
      "Ġdisease": 3341,
      "Ġautom": 3342,
      "Ġtemperature": 3343,
      "Ġmyster": 3344,
      "Ġfoot": 3345,
      "bal": 3346,
      "Ġthing": 3347,
      "Ġdest": 3348,
      "Ġearn": 3349,
      "urt": 3350,
      "Ġrule": 3351,
      "Ġforces": 3352,
      "Ġleaving": 3353,
      "cipl": 3354,
      "Ġselecting": 3355,
      "Ġmeals": 3356,
      "akers": 3357,
      "Ġissue": 3358,
      "Ġcommunicate": 3359,
      "Ġanimal": 3360,
      "Ġleadership": 3361,
      "Ġnegative": 3362,
      "Ġconclusion": 3363,
      "Ġdialog": 3364,
      "Ġalgorith": 3365,
      "husi": 3366,
      "bl": 3367,
      "ror": 3368,
      "Ġflex": 3369,
      "areness": 3370,
      "Ġasking": 3371,
      "Ġalready": 3372,
      "Ġjapan": 3373,
      "Ġmexic": 3374,
      "Ġroll": 3375,
      "Ġcentral": 3376,
      "Ġinfluenc": 3377,
      "Ġcamer": 3378,
      "Ġnavigating": 3379,
      "Ġconsequently": 3380,
      "Ġgraphic": 3381,
      "Ġtips": 3382,
      "Ġalternative": 3383,
      "Ġsuddenly": 3384,
      "oor": 3385,
      "Ġthri": 3386,
      "Ġgri": 3387,
      "Ġgerm": 3388,
      "Ġacad": 3389,
      "Ġknew": 3390,
      "Ġbuy": 3391,
      "Ġdelves": 3392,
      "lessly": 3393,
      "Ġorganization": 3394,
      "Ġcorrect": 3395,
      "Ġwait": 3396,
      "Ġprepare": 3397,
      "however": 3398,
      "Ġsoftware": 3399,
      "Ġwisdom": 3400,
      "Ġultim": 3401,
      "bt": 3402,
      "ded": 3403,
      "tal": 3404,
      "Ġsave": 3405,
      "Ġmer": 3406,
      "throp": 3407,
      "Ġconst": 3408,
      "Ġcontact": 3409,
      "Ġtail": 3410,
      "Ġplayers": 3411,
      "Ġcrim": 3412,
      "Ġfocused": 3413,
      "Ġexcited": 3414,
      "Ġenthusi": 3415,
      "Ġpurs": 3416,
      "Ġmagic": 3417,
      "Ġorder": 3418,
      "Ġwindow": 3419,
      "Ġcitizens": 3420,
      "ction": 3421,
      "ees": 3422,
      "pre": 3423,
      "set": 3424,
      "uel": 3425,
      "Ġ[": 3426,
      "acles": 3427,
      "Ġresid": 3428,
      "Ġfeat": 3429,
      "ishing": 3430,
      "Ġdefining": 3431,
      "Ġexpand": 3432,
      "Ġfoods": 3433,
      "Ġprofound": 3434,
      "Ġcontroll": 3435,
      "Ġjoin": 3436,
      "Ġenhancing": 3437,
      "Ġexisting": 3438,
      "Ġregional": 3439,
      "...": 3440,
      "Ġarchitecture": 3441,
      "Ġexpectations": 3442,
      "Ġadvancements": 3443,
      "aks": 3444,
      "Ġsent": 3445,
      "Ġpul": 3446,
      "Ġmiss": 3447,
      "Ġdat": 3448,
      "acies": 3449,
      "Ġactive": 3450,
      "Ġplus": 3451,
      "Ġmargin": 3452,
      "Ġincludes": 3453,
      "Ġhumor": 3454,
      "Ġcareful": 3455,
      "Ġdemoc": 3456,
      "Ġproperties": 3457,
      "Ġinnovation": 3458,
      "Ġfreed": 3459,
      "Ġclosely": 3460,
      "Ġwalking": 3461,
      "Ġstyles": 3462,
      "going": 3463,
      "Ġconflict": 3464,
      "Ġhyd": 3465,
      "Ġdishes": 3466,
      "from": 3467,
      "ler": 3468,
      "Ġcard": 3469,
      "ores": 3470,
      "Ġpow": 3471,
      "Ġmap": 3472,
      "Ġlin": 3473,
      "enth": 3474,
      "eline": 3475,
      "Ġimplications": 3476,
      "ude": 3477,
      "Ġresulting": 3478,
      "Ġpark": 3479,
      "Ġroc": 3480,
      "Ġpret": 3481,
      "Ġrespond": 3482,
      "Ġseek": 3483,
      "Ġimmedi": 3484,
      "Ġmilitary": 3485,
      "Ġdiving": 3486,
      "Ġpreferences": 3487,
      "Ġengineering": 3488,
      "Ġfundamental": 3489,
      "example": 3490,
      "gar": 3491,
      "pes": 3492,
      "son": 3493,
      "ufact": 3494,
      "you": 3495,
      "ench": 3496,
      "Ġdang": 3497,
      "arian": 3498,
      "ote": 3499,
      "Ġunlike": 3500,
      "Ġfeed": 3501,
      "Ġgoes": 3502,
      "Ġworked": 3503,
      "Ġfeels": 3504,
      "Ġlocation": 3505,
      "Ġtradition": 3506,
      "Ġhappen": 3507,
      "Ġgenerate": 3508,
      "Ġeducational": 3509,
      "Ġencourages": 3510,
      "Ġera": 3511,
      "Ġafrican": 3512,
      "understand": 3513,
      "Ġcompassion": 3514,
      "$$": 3515,
      "',": 3516,
      "uit": 3517,
      "Ġic": 3518,
      "Ġthor": 3519,
      "Ġsac": 3520,
      "encies": 3521,
      "Ġpen": 3522,
      "Ġmel": 3523,
      "acking": 3524,
      "iving": 3525,
      "ratic": 3526,
      "Ġinsurance": 3527,
      "Ġsigns": 3528,
      "Ġpositi": 3529,
      "Ġdetail": 3530,
      "Ġtalking": 3531,
      "conn": 3532,
      "Ġassign": 3533,
      "Ġequal": 3534,
      "Ġdiet": 3535,
      "Ġrecognizing": 3536,
      "Ġsupporting": 3537,
      "Ġorigins": 3538,
      "Ġcollective": 3539,
      "Ġlimited": 3540,
      "Ġtreatment": 3541,
      "Ġjewish": 3542,
      "mar": 3543,
      "Ġ9": 3544,
      "Ġtree": 3545,
      "Ġcand": 3546,
      "ingu": 3547,
      "Ġwid": 3548,
      "Ġdry": 3549,
      "Ġdomin": 3550,
      "Ġox": 3551,
      "room": 3552,
      "essions": 3553,
      "Ġprop": 3554,
      "Ġtrack": 3555,
      "Ġapplying": 3556,
      "Ġregions": 3557,
      "Ġcourt": 3558,
      "Ġsecret": 3559,
      "Ġfacing": 3560,
      "Ġattach": 3561,
      "Ġwaiting": 3562,
      "Ġlayer": 3563,
      "Ġmeasures": 3564,
      "Ġpatients": 3565,
      "Ġmixed": 3566,
      "Ġethical": 3567,
      "Ġbarri": 3568,
      "Ġfeaturing": 3569,
      "`,": 3570,
      "bles": 3571,
      "mos": 3572,
      "eral": 3573,
      "estern": 3574,
      "Ġthous": 3575,
      "Ġwon": 3576,
      "repr": 3577,
      "Ġlaugh": 3578,
      "Ġexec": 3579,
      "Ġances": 3580,
      "abilities": 3581,
      "Ġabove": 3582,
      "ott": 3583,
      "avors": 3584,
      "esty": 3585,
      "Ġparties": 3586,
      "Ġparamet": 3587,
      "Ġexperiment": 3588,
      "Ġscr": 3589,
      "Ġnumpy": 3590,
      "Ġidentities": 3591,
      "Ġplanet": 3592,
      "Ġsolve": 3593,
      "Ġseemed": 3594,
      "Ġprevious": 3595,
      "Ġcenturies": 3596,
      "Ġcomprehensive": 3597,
      "Ġinstru": 3598,
      "Ġcolonial": 3599,
      "Ġsarah": 3600,
      "Ġmarginal": 3601,
      "hic": 3602,
      "mod": 3603,
      "Ġtaste": 3604,
      "Ġsad": 3605,
      "entic": 3606,
      "Ġinher": 3607,
      "Ġrein": 3608,
      "iles": 3609,
      "Ġexcess": 3610,
      "une": 3611,
      "Ġspo": 3612,
      "ouse": 3613,
      "asts": 3614,
      "ultane": 3615,
      "Ġbutter": 3616,
      "Ġseeing": 3617,
      "Ġexcit": 3618,
      "Ġspeed": 3619,
      "Ġconnecting": 3620,
      "Ġsymbols": 3621,
      "Ġoptimal": 3622,
      "Ġelectric": 3623,
      "Ġscholars": 3624,
      "Ġthorough": 3625,
      "orial": 3626,
      "aly": 3627,
      "ana": 3628,
      "Ġdance": 3629,
      "Ġla": 3630,
      "asons": 3631,
      "Ġacknow": 3632,
      "Ġcreation": 3633,
      "Ġmaxim": 3634,
      "Ġroot": 3635,
      "Ġperm": 3636,
      "Ġsets": 3637,
      "Ġfindings": 3638,
      "Ġdistribution": 3639,
      "Ġpublish": 3640,
      "Ġrequirements": 3641,
      "Ġcomfortable": 3642,
      "known": 3643,
      "Ġradi": 3644,
      "atisf": 3645,
      "Ġinstitutions": 3646,
      "eff": 3647,
      "hist": 3648,
      "ox": 3649,
      "ression": 3650,
      "inated": 3651,
      "Ġcogn": 3652,
      "alf": 3653,
      "Ġfellow": 3654,
      "Ġrace": 3655,
      "Ġroman": 3656,
      "Ġvary": 3657,
      "Ġspent": 3658,
      "Ġdeath": 3659,
      "Ġcream": 3660,
      "Ġupd": 3661,
      "Ġtimmy": 3662,
      "Ġii": 3663,
      "Ġsimultane": 3664,
      "Ġdifferently": 3665,
      "Ġsmart": 3666,
      "Ġwouldn": 3667,
      "Ġguess": 3668,
      "Ġglass": 3669,
      "Ġfocuses": 3670,
      "Ġauthentic": 3671,
      "Ġaffecting": 3672,
      "Ġsympt": 3673,
      "Ġpolitics": 3674,
      "Ġidentifying": 3675,
      "Ġnorms": 3676,
      "Ġapplication": 3677,
      "Ġadventures": 3678,
      "Ġmeaningful": 3679,
      "Ġexhib": 3680,
      "Ġq": 3681,
      "onal": 3682,
      "oud": 3683,
      "Ġbra": 3684,
      "Ġmut": 3685,
      "Ġhosp": 3686,
      "Ġwhite": 3687,
      "Ġongoing": 3688,
      "Ġchem": 3689,
      "Ġjoy": 3690,
      "ulture": 3691,
      "Ġlots": 3692,
      "Ġpoll": 3693,
      "Ġdesigning": 3694,
      "airs": 3695,
      "Ġappl": 3696,
      "Ġbelieved": 3697,
      "Ġimproved": 3698,
      "----------------------------------------": 3699,
      "Ġexcitement": 3700,
      "ior": 3701,
      "rup": 3702,
      "way": 3703,
      "Ġahead": 3704,
      "once": 3705,
      "Ġcry": 3706,
      "atter": 3707,
      "Ġreason": 3708,
      "Ġnation": 3709,
      "import": 3710,
      "Ġrandom": 3711,
      "ama": 3712,
      "Ġforeign": 3713,
      "Ġweek": 3714,
      "Ġwhenever": 3715,
      "asting": 3716,
      "Ġmanufact": 3717,
      "Ġmax": 3718,
      "Ġletters": 3719,
      "Ġcold": 3720,
      "Ġadditional": 3721,
      "Ġadvers": 3722,
      "Ġobj": 3723,
      "Ġapart": 3724,
      "Ġpopulations": 3725,
      "Ġpartners": 3726,
      "Ġconversations": 3727,
      "Ġvoice": 3728,
      "Ġetc": 3729,
      "Ġcomplete": 3730,
      "Ġhabit": 3731,
      "Ġexposure": 3732,
      "finally": 3733,
      "col": 3734,
      "gue": 3735,
      "ping": 3736,
      "Ġfix": 3737,
      "Ġbit": 3738,
      "Ġhost": 3739,
      "Ġeast": 3740,
      "ceed": 3741,
      "amb": 3742,
      "Ġleaves": 3743,
      "unch": 3744,
      "Ġspan": 3745,
      "Ġartic": 3746,
      "Ġexplain": 3747,
      "ypes": 3748,
      "Ġregulations": 3749,
      "Ġseries": 3750,
      "Ġcapital": 3751,
      "Ġinformed": 3752,
      "Ġawareness": 3753,
      "Ġopportunity": 3754,
      "Ġvehic": 3755,
      "Ġinitially": 3756,
      "Ġolder": 3757,
      "Ġwalk": 3758,
      "Ġpreparing": 3759,
      "poses": 3760,
      "Ġrunning": 3761,
      "Ġefficiency": 3762,
      "Ġgenetic": 3763,
      "Ġreveal": 3764,
      "Ġintersection": 3765,
      "Ġconvey": 3766,
      "cing": 3767,
      "eties": 3768,
      "iers": 3769,
      "ron": 3770,
      "inate": 3771,
      "Ġball": 3772,
      "Ġtoys": 3773,
      "Ġgar": 3774,
      "Ġnations": 3775,
      "Ġcreates": 3776,
      "Ġbox": 3777,
      "Ġstudent": 3778,
      "Ġrecomm": 3779,
      "Ġnotice": 3780,
      "Ġpractical": 3781,
      "Ġgrew": 3782,
      "Ġprotecting": 3783,
      "Ġsocieties": 3784,
      "Ġcomplexity": 3785,
      "Ġminutes": 3786,
      "Ġgeneral": 3787,
      "Ġcarbon": 3788,
      "Ġteacher": 3789,
      "Ġincrease": 3790,
      "Ġintroduce": 3791,
      "Ġmetal": 3792,
      "Ġcustoms": 3793,
      "Ġmeeting": 3794,
      "Ġinteraction": 3795,
      "Ġstorage": 3796,
      "Ġgarden": 3797,
      "Ġthreats": 3798,
      "Ġvegetables": 3799,
      "Ġdedicated": 3800,
      "Ġintelligence": 3801,
      "Ġultimately": 3802,
      "Ġthousands": 3803,
      "Ġsimultaneously": 3804,
      "iance": 3805,
      "with": 3806,
      "Ġslight": 3807,
      "Ġcater": 3808,
      "Ġcounter": 3809,
      "Ġwent": 3810,
      "eless": 3811,
      "iled": 3812,
      "Ġenab": 3813,
      "Ġenable": 3814,
      "Ġsup": 3815,
      "Ġweak": 3816,
      "Ġweather": 3817,
      "Ġfrench": 3818,
      "atively": 3819,
      "Ġprepar": 3820,
      "Ġrelated": 3821,
      "Ġdecor": 3822,
      "Ġengagement": 3823,
      "Ġdeveloped": 3824,
      "Ġartist": 3825,
      "Ġchoosing": 3826,
      "Ġprogramm": 3827,
      "Ġapproxim": 3828,
      "Ġimproving": 3829,
      "Ġimmers": 3830,
      "Ġexpressions": 3831,
      "Ġperiods": 3832,
      "Ġrhyth": 3833,
      "Ġfantastic": 3834,
      "Ġcanada": 3835,
      "Ġsymptoms": 3836,
      "right": 3837,
      "ued": 3838,
      "ze": 3839,
      "Ġtrib": 3840,
      "tish": 3841,
      "Ġwaste": 3842,
      "Ġmast": 3843,
      "Ġmys": 3844,
      "Ġden": 3845,
      "Ġdog": 3846,
      "etric": 3847,
      "using": 3848,
      "Ġbeings": 3849,
      "ried": 3850,
      "Ġaccept": 3851,
      "uctions": 3852,
      "Ġmeant": 3853,
      "Ġexamination": 3854,
      "Ġworlds": 3855,
      "Ġgrab": 3856,
      "Ġlost": 3857,
      "Ġlibraries": 3858,
      "Ġdreams": 3859,
      "Ġphilosophy": 3860,
      "Ġfemale": 3861,
      "Ġalike": 3862,
      "Ġinjur": 3863,
      "Ġgerman": 3864,
      "Ġfreedom": 3865,
      "def": 3866,
      "ky": 3867,
      "mer": 3868,
      "uts": 3869,
      "well": 3870,
      "Ġtour": 3871,
      "Ġaust": 3872,
      "Ġcoun": 3873,
      "Ġpush": 3874,
      "ete": 3875,
      "Ġrates": 3876,
      "ulner": 3877,
      "Ġprint": 3878,
      "ustling": 3879,
      "Ġdecide": 3880,
      "Ġdiscussion": 3881,
      "Ġinfluences": 3882,
      "Ġencouraging": 3883,
      "Ġgovernments": 3884,
      "Ġextraord": 3885,
      "Ġdiseases": 3886,
      "Ġneighbor": 3887,
      "],": 3888,
      "oon": 3889,
      "Ġmir": 3890,
      "Ġoce": 3891,
      "Ġhers": 3892,
      "Ġhors": 3893,
      "Ġtow": 3894,
      "omed": 3895,
      "these": 3896,
      "Ġruss": 3897,
      "Ġforce": 3898,
      "Ġleave": 3899,
      "Ġdifference": 3900,
      "Ġwash": 3901,
      "Ġbran": 3902,
      "order": 3903,
      "Ġpoetry": 3904,
      "Ġconsidering": 3905,
      "Ġshaped": 3906,
      "plicated": 3907,
      "Ġfunctional": 3908,
      "Ġcombining": 3909,
      "Ġnorth": 3910,
      "Ġlimit": 3911,
      "Ġexperiencing": 3912,
      "Ġexercise": 3913,
      "Ġbudd": 3914,
      "Ġterrit": 3915,
      "Ġhighlighting": 3916,
      "Ġexchange": 3917,
      "Ġdialogue": 3918,
      "ped": 3919,
      "ystem": 3920,
      "zy": 3921,
      "ingly": 3922,
      "Ġriver": 3923,
      "Ġvulner": 3924,
      "Ġproced": 3925,
      "Ġtrain": 3926,
      "ume": 3927,
      "Ġfruits": 3928,
      "Ġinterconn": 3929,
      "Ġqualities": 3930,
      "Ġlearners": 3931,
      "Ġadded": 3932,
      "nesses": 3933,
      "Ġvision": 3934,
      "fiction": 3935,
      "Ġcountless": 3936,
      "Ġexcell": 3937,
      "Ġspecialized": 3938,
      "Ġenter": 3939,
      "Ġactual": 3940,
      "Ġhimself": 3941,
      "Ġkindness": 3942,
      "Ġharmony": 3943,
      "Ġbenefit": 3944,
      "Ġdetermination": 3945,
      "Ġpredict": 3946,
      "Ġmachines": 3947,
      "Ġdamage": 3948,
      "Ġsurprise": 3949,
      "Ġviolence": 3950,
      "Ġextraordinary": 3951,
      "ev": 3952,
      "Ġtac": 3953,
      "Ġbustling": 3954,
      "Ġmoun": 3955,
      "that": 3956,
      "Ġrain": 3957,
      "ulated": 3958,
      "Ġuser": 3959,
      "Ġisl": 3960,
      "Ġspot": 3961,
      "Ġworth": 3962,
      "force": 3963,
      "Ġcommer": 3964,
      "Ġscene": 3965,
      "apping": 3966,
      "Ġtransl": 3967,
      "Ġwellbeing": 3968,
      "Ġallowed": 3969,
      "Ġlocated": 3970,
      "Ġexcl": 3971,
      "Ġspeaking": 3972,
      "Ġdirectly": 3973,
      "Ġreceive": 3974,
      "Ġregularly": 3975,
      "Ġmechanisms": 3976,
      "Ġintriguing": 3977,
      "lights": 3978,
      "test": 3979,
      "Ġwoman": 3980,
      "alle": 3981,
      "Ġfing": 3982,
      "Ġfib": 3983,
      "iter": 3984,
      "Ġmist": 3985,
      "leg": 3986,
      "Ġeager": 3987,
      "ections": 3988,
      "Ġgold": 3989,
      "asion": 3990,
      "Ġweb": 3991,
      "Ġliqu": 3992,
      "Ġintel": 3993,
      "Ġadult": 3994,
      "Ġclub": 3995,
      "Ġmotiv": 3996,
      "Ġdesired": 3997,
      "Ġgoods": 3998,
      "Ġconsidered": 3999,
      "Ġdistance": 4000,
      "Ġteachings": 4001,
      "Ġentertain": 4002,
      "fortun": 4003,
      "coming": 4004,
      "Ġcauses": 4005,
      "Ġfully": 4006,
      "Ġtraits": 4007,
      "Ġlandscapes": 4008,
      "Ġelectronic": 4009,
      "board": 4010,
      "Ġdocuments": 4011,
      "Ġuncover": 4012,
      "Ġcutting": 4013,
      "Ġegypt": 4014,
      "Ġsleep": 4015,
      "18": 4016,
      "ai": 4017,
      "body": 4018,
      "ĠĊ": 4019,
      "Ġten": 4020,
      "Ġsong": 4021,
      "Ġsatisf": 4022,
      "Ġbab": 4023,
      "Ġmid": 4024,
      "Ġmaster": 4025,
      "Ġlength": 4026,
      "stacles": 4027,
      "urd": 4028,
      "Ġstun": 4029,
      "Ġrab": 4030,
      "uses": 4031,
      "Ġshop": 4032,
      "Ġcancer": 4033,
      "Ġresistance": 4034,
      "Ġstrange": 4035,
      "Ġinteract": 4036,
      "Ġhelpful": 4037,
      "Ġbasics": 4038,
      "Ġtranspar": 4039,
      "Ġobject": 4040,
      "ternal": 4041,
      "Ġbuildings": 4042,
      "Ġcarry": 4043,
      "Ġdiscovering": 4044,
      "Ġharmful": 4045,
      "Ġservice": 4046,
      "Ġpatient": 4047,
      "Ġdetermine": 4048,
      "Ġbackgrounds": 4049,
      "Ġmovies": 4050,
      "Ġsuitable": 4051,
      "Ġadvantages": 4052,
      "Ġdiagn": 4053,
      "Ġcognitive": 4054,
      "Ġslightly": 4055,
      "Ġinterconnected": 4056,
      "gbt": 4057,
      "ole": 4058,
      "ray": 4059,
      "rich": 4060,
      "Ġwestern": 4061,
      "Ġpor": 4062,
      "Ġfail": 4063,
      "Ġbow": 4064,
      "Ġtold": 4065,
      "Ġlooks": 4066,
      "Ġchur": 4067,
      "Ġcannot": 4068,
      "Ġexplaining": 4069,
      "Ġclaim": 4070,
      "Ġheld": 4071,
      "Ġletter": 4072,
      "Ġpercep": 4073,
      "Ġremark": 4074,
      "Ġtaken": 4075,
      "Ġ200": 4076,
      "Ġobstacles": 4077,
      "Ġpopulation": 4078,
      "Ġlonger": 4079,
      "Ġturns": 4080,
      "Ġspeak": 4081,
      "Ġpurpose": 4082,
      "Ġstandard": 4083,
      "Ġminds": 4084,
      "Ġwaves": 4085,
      "Ġecos": 4086,
      "Ġphotograph": 4087,
      "Ġstruggles": 4088,
      "Ġsouth": 4089,
      "Ġcollege": 4090,
      "Ġscreen": 4091,
      "ompass": 4092,
      "gbtq": 4093,
      "bec": 4094,
      "Ġstic": 4095,
      "Ġdou": 4096,
      "Ġha": 4097,
      "Ġoffic": 4098,
      "ented": 4099,
      "rol": 4100,
      "olving": 4101,
      "Ġwealth": 4102,
      "Ġuns": 4103,
      "Ġunity": 4104,
      "Ġneu": 4105,
      "Ġhealing": 4106,
      "udes": 4107,
      "Ġparty": 4108,
      "ford": 4109,
      "ibly": 4110,
      "Ġsky": 4111,
      "Ġserved": 4112,
      "Ġencompass": 4113,
      "Ġcareer": 4114,
      "Ġmeanwhile": 4115,
      "Ġteachers": 4116,
      "Ġpurposes": 4117,
      "Ġappearance": 4118,
      "Ġfantas": 4119,
      "Ġaudiences": 4120,
      "Ġtouch": 4121,
      "Ġecosystem": 4122,
      "oved": 4123,
      "tles": 4124,
      "ðŁ": 4125,
      "Ġsell": 4126,
      "Ġsold": 4127,
      "Ġcases": 4128,
      "Ġwide": 4129,
      "Ġwants": 4130,
      "Ġdol": 4131,
      "Ġinequ": 4132,
      "Ġhalf": 4133,
      "amp": 4134,
      "agon": 4135,
      "Ġcoming": 4136,
      "osen": 4137,
      "Ġalone": 4138,
      "Ġabstr": 4139,
      "pper": 4140,
      "####": 4141,
      "Ġbrings": 4142,
      "neys": 4143,
      "Ġcris": 4144,
      "Ġeffort": 4145,
      "Ġhappening": 4146,
      "Ġsolar": 4147,
      "Ġturning": 4148,
      "resp": 4149,
      "Ġuniverse": 4150,
      "Ġflowers": 4151,
      "Ġdream": 4152,
      "Ġabsor": 4153,
      "Ġcategories": 4154,
      "Ġthrilling": 4155,
      "throughout": 4156,
      "Ġacademic": 4157,
      ",'": 4158,
      "10": 4159,
      "iety": 4160,
      "rors": 4161,
      "Ġ#": 4162,
      "Ġtrou": 4163,
      "Ġtall": 4164,
      "inations": 4165,
      "esus": 4166,
      "Ġpet": 4167,
      "Ġfish": 4168,
      "ison": 4169,
      "ister": 4170,
      "Ġgas": 4171,
      "Ġforget": 4172,
      "add": 4173,
      "emb": 4174,
      "Ġlik": 4175,
      "Ġdisplay": 4176,
      "Ġimpacts": 4177,
      "Ġcosts": 4178,
      "Ġinsight": 4179,
      "Ġrelax": 4180,
      "Ġemotion": 4181,
      "Ġseemingly": 4182,
      "Ġrepe": 4183,
      "Ġstanding": 4184,
      "Ġempire": 4185,
      "Ġpatience": 4186,
      "after": 4187,
      "Ġefficient": 4188,
      "Ġminimize": 4189,
      "Ġvoices": 4190,
      "Ġpsychological": 4191,
      "Ġarrang": 4192,
      "Ġthreat": 4193,
      "----------------------------": 4194,
      "Ġenabling": 4195,
      "Ġsuppl": 4196,
      "Ġremarkable": 4197,
      "eed": 4198,
      "inent": 4199,
      "tise": 4200,
      "orm": 4201,
      "Ġdress": 4202,
      "Ġoh": 4203,
      "Ġinhab": 4204,
      "Ġhun": 4205,
      "Ġlgbtq": 4206,
      "Ġreform": 4207,
      "Ġnone": 4208,
      "Ġstumb": 4209,
      "Ġenables": 4210,
      "Ġacqu": 4211,
      "Ġreson": 4212,
      "Ġdispar": 4213,
      "Ġdisput": 4214,
      "fulness": 4215,
      "Ġdeser": 4216,
      "Ġbrand": 4217,
      "Ġinclusive": 4218,
      "Ġopin": 4219,
      "Ġopening": 4220,
      "Ġflu": 4221,
      "Ġflavor": 4222,
      "Ġcapable": 4223,
      "Ġtreas": 4224,
      "Ġstrategy": 4225,
      "Ġpaint": 4226,
      "Ġproperty": 4227,
      "Ġnonfiction": 4228,
      "Ġpredic": 4229,
      "Ġparticipate": 4230,
      "Ġpreserve": 4231,
      "Ġexercises": 4232,
      "Ġrecipes": 4233,
      "Ġmathematical": 4234,
      "()`": 4235,
      "Ġpretty": 4236,
      "Ġbarriers": 4237,
      "Ġexcellent": 4238,
      "ffer": 4239,
      "oint": 4240,
      "Ġpa": 4241,
      "Ġboo": 4242,
      "Ġlabor": 4243,
      "Ġreasons": 4244,
      "Ġexternal": 4245,
      "ift": 4246,
      "Ġcha": 4247,
      "used": 4248,
      "Ġwear": 4249,
      "Ġinten": 4250,
      "Ġacts": 4251,
      "Ġhey": 4252,
      "Ġunderlying": 4253,
      "Ġstra": 4254,
      "ributions": 4255,
      "Ġserving": 4256,
      "Ġfriendly": 4257,
      "Ġflavors": 4258,
      "Ġsecre": 4259,
      "Ġfinal": 4260,
      "Ġrepresenting": 4261,
      "Ġeconomy": 4262,
      "Ġdevice": 4263,
      "Ġemerging": 4264,
      "Ġsales": 4265,
      "Ġstaying": 4266,
      "Ġstarts": 4267,
      "Ġtraff": 4268,
      "rupt": 4269,
      "Ġapproximately": 4270,
      "aign": 4271,
      "eks": 4272,
      "ged": 4273,
      "hand": 4274,
      "pers": 4275,
      "tor": 4276,
      "Ġaes": 4277,
      "Ġborn": 4278,
      "Ġlu": 4279,
      "acity": 4280,
      "Ġstere": 4281,
      "Ġstands": 4282,
      "ulating": 4283,
      "ifying": 4284,
      "emp": 4285,
      "Ġleast": 4286,
      "Ġalm": 4287,
      "rial": 4288,
      "ript": 4289,
      "pling": 4290,
      "Ġdealing": 4291,
      "Ġkn": 4292,
      "Ġdiscipl": 4293,
      "Ġcreations": 4294,
      "Ġamount": 4295,
      "Ġmoist": 4296,
      "Ġcoast": 4297,
      "Ġtechnological": 4298,
      "Ġgras": 4299,
      "tains": 4300,
      "Ġpotentially": 4301,
      "ancy": 4302,
      "Ġfollowed": 4303,
      "Ġhandle": 4304,
      "Ġmemories": 4305,
      "Ġinspiring": 4306,
      "Ġconversation": 4307,
      "Ġcustomers": 4308,
      "Ġclothing": 4309,
      "Ġaccurate": 4310,
      "Ġbritish": 4311,
      "Ġarrived": 4312,
      "Ġfrequently": 4313,
      "Ġcampaign": 4314,
      "data": 4315,
      "ram": 4316,
      "Ġthrow": 4317,
      "Ġfire": 4318,
      "Ġlack": 4319,
      "roll": 4320,
      "eta": 4321,
      "Ġcomics": 4322,
      "Ġchosen": 4323,
      "Ġsugar": 4324,
      "Ġpray": 4325,
      "Ġremained": 4326,
      "Ġgenres": 4327,
      "Ġleads": 4328,
      "Ġvisiting": 4329,
      "Ġconcent": 4330,
      "Ġtrees": 4331,
      "Ġdemand": 4332,
      "Ġperforming": 4333,
      "Ġmonths": 4334,
      "Ġempower": 4335,
      "Ġdoctors": 4336,
      "Ġnormal": 4337,
      "Ġsupply": 4338,
      "Ġintricacies": 4339,
      "Ġimplementing": 4340,
      "Ġpuzz": 4341,
      "Ġcapture": 4342,
      "Ġtransportation": 4343,
      "Ġsweet": 4344,
      "Ġanxiety": 4345,
      "Ġprogramming": 4346,
      "Ġaesthe": 4347,
      "Ġstereot": 4348,
      "found": 4349,
      "ned": 4350,
      "wich": 4351,
      "wise": 4352,
      "yl": 4353,
      "Ġcars": 4354,
      "Ġdur": 4355,
      "Ġhyp": 4356,
      "Ġtotal": 4357,
      "Ġlights": 4358,
      "ectives": 4359,
      "Ġcomplicated": 4360,
      "Ġlemon": 4361,
      "Ġalter": 4362,
      "ght": 4363,
      "ills": 4364,
      "ector": 4365,
      "Ġclar": 4366,
      "athering": 4367,
      "Ġoverl": 4368,
      "Ġoverview": 4369,
      "Ġblocks": 4370,
      "Ġreflec": 4371,
      "Ġformation": 4372,
      "Ġsubjects": 4373,
      "Ġcorpor": 4374,
      "Ġconfidence": 4375,
      "icians": 4376,
      "Ġpurch": 4377,
      "Ġresponsibility": 4378,
      "Ġcolorful": 4379,
      "Ġcaused": 4380,
      "Ġcollection": 4381,
      "Ġreturns": 4382,
      "Ġincorporate": 4383,
      "Ġcheese": 4384,
      "Ġcuis": 4385,
      "Ġherself": 4386,
      "Ġintellect": 4387,
      "fortunately": 4388,
      "cle": 4389,
      "wr": 4390,
      "Ġice": 4391,
      "ino": 4392,
      "erge": 4393,
      "Ġsought": 4394,
      "Ġsessions": 4395,
      "lev": 4396,
      "Ġlat": 4397,
      "iding": 4398,
      "Ġrom": 4399,
      "cho": 4400,
      "Ġcomic": 4401,
      "Ġcher": 4402,
      "Ġprob": 4403,
      "Ġresource": 4404,
      "Ġconservation": 4405,
      "Ġboard": 4406,
      "Ġexpertise": 4407,
      "Ġbrid": 4408,
      "Ġbright": 4409,
      "Ġreflecting": 4410,
      "fication": 4411,
      "Ġsolution": 4412,
      "Ġbelief": 4413,
      "Ġinspire": 4414,
      "Ġseems": 4415,
      "Ġreport": 4416,
      "Ġdescri": 4417,
      "Ġprior": 4418,
      "Ġutilize": 4419,
      "Ġsmoothly": 4420,
      "Ġmarginalized": 4421,
      "Ġstraight": 4422,
      "Ġtraffic": 4423,
      ":*": 4424,
      "fr": 4425,
      "iant": 4426,
      "lines": 4427,
      "na": 4428,
      "Ġfaster": 4429,
      "itting": 4430,
      "ask": 4431,
      "Ġstability": 4432,
      "Ġconv": 4433,
      "plot": 4434,
      "Ġheight": 4435,
      "Ġcompelling": 4436,
      "Ġimpress": 4437,
      "Ġfeet": 4438,
      "ounds": 4439,
      "Ġnews": 4440,
      "Ġfacts": 4441,
      "Ġstandards": 4442,
      "Ġmarkets": 4443,
      "Ġconsistent": 4444,
      "Ġwatching": 4445,
      "Ġheavily": 4446,
      "Ġintroduced": 4447,
      "Ġmonitor": 4448,
      "Ġstunning": 4449,
      "med": 4450,
      "tt": 4451,
      "Ġcatch": 4452,
      "Ġban": 4453,
      "Ġeat": 4454,
      "iling": 4455,
      "Ġrig": 4456,
      "Ġrate": 4457,
      "ird": 4458,
      "irt": 4459,
      "verage": 4460,
      "tery": 4461,
      "Ġweap": 4462,
      "Ġtrig": 4463,
      "Ġtruth": 4464,
      "Ġattit": 4465,
      "Ġresolution": 4466,
      "Ġcontributions": 4467,
      "Ġincome": 4468,
      "astr": 4469,
      "Ġmolec": 4470,
      "Ġrecently": 4471,
      "Ġmarvel": 4472,
      "Ġplayer": 4473,
      "Ġgenre": 4474,
      "Ġhighlights": 4475,
      "Ġcomplexities": 4476,
      "Ġassistance": 4477,
      "Ġcorner": 4478,
      "Ġclassic": 4479,
      "Ġequality": 4480,
      "Ġdrug": 4481,
      "Ġsunlight": 4482,
      "Ġreduced": 4483,
      "Ġhabits": 4484,
      "Ġheavy": 4485,
      "Ġwalls": 4486,
      "Ġgirl": 4487,
      "understanding": 4488,
      "Ġpositively": 4489,
      "Ġpreparation": 4490,
      "Ġabstract": 4491,
      "50": 4492,
      "cop": 4493,
      "dr": 4494,
      "fun": 4495,
      "uk": 4496,
      "Ġsizes": 4497,
      "Ġmigration": 4498,
      "Ġder": 4499,
      "Ġrepor": 4500,
      "Ġgh": 4501,
      "Ġgathering": 4502,
      "Ġvac": 4503,
      "Ġvict": 4504,
      "Ġsuffer": 4505,
      "Ġjesus": 4506,
      "Ġseeds": 4507,
      "Ġselection": 4508,
      "Ġplans": 4509,
      "Ġatmos": 4510,
      "Ġcontexts": 4511,
      "Ġinterview": 4512,
      "Ġsett": 4513,
      "Ġfolk": 4514,
      "Ġassist": 4515,
      "Ġfactor": 4516,
      "Ġinner": 4517,
      "Ġsunny": 4518,
      "Ġinternal": 4519,
      "Ġclearly": 4520,
      "Ġefficiently": 4521,
      "Ġbirth": 4522,
      "Ġintervention": 4523,
      "Ġsandwich": 4524,
      "Ġscenarios": 4525,
      "Ġagriculture": 4526,
      "Ġatmosph": 4527,
      "dit": 4528,
      "mo": 4529,
      "ygen": 4530,
      "Ġtiss": 4531,
      "Ġtells": 4532,
      "Ġsix": 4533,
      "Ġsides": 4534,
      "Ġcrow": 4535,
      "Ġtoy": 4536,
      "rops": 4537,
      "ading": 4538,
      "Ġvs": 4539,
      "Ġvoc": 4540,
      "Ġabuse": 4541,
      "pping": 4542,
      "Ġdiss": 4543,
      "Ġdisapp": 4544,
      "Ġemily": 4545,
      "asty": 4546,
      "Ġclin": 4547,
      "Ġamb": 4548,
      "Ġconscious": 4549,
      "Ġinstances": 4550,
      "overy": 4551,
      "Ġdelight": 4552,
      "Ġedge": 4553,
      "Ġcenters": 4554,
      "Ġhandling": 4555,
      "Ġrepresentations": 4556,
      "Ġcharacterized": 4557,
      "Ġproperly": 4558,
      "Ġrecognition": 4559,
      "Ġoccup": 4560,
      "Ġsurroundings": 4561,
      "Ġprepared": 4562,
      "Ġphotography": 4563,
      "Ġafrica": 4564,
      "Ġvolun": 4565,
      "Ġreplied": 4566,
      "Ġarguments": 4567,
      "Ġlabel": 4568,
      "Ġcrafts": 4569,
      "Ġseparate": 4570,
      "Ġcamera": 4571,
      "Ġneighborhood": 4572,
      "\",": 4573,
      "))": 4574,
      "bra": 4575,
      "de": 4576,
      "ket": 4577,
      "ught": 4578,
      "Ġsomed": 4579,
      "tif": 4580,
      "Ġfather": 4581,
      "Ġfuel": 4582,
      "Ġmaps": 4583,
      "Ġnu": 4584,
      "Ġnames": 4585,
      "urally": 4586,
      "Ġchain": 4587,
      "Ġpropos": 4588,
      "Ġjump": 4589,
      "Ġsole": 4590,
      "Ġcontent": 4591,
      "Ġunderst": 4592,
      "Ġmob": 4593,
      "raft": 4594,
      "Ġtaught": 4595,
      "Ġteams": 4596,
      "Ġgreek": 4597,
      "Ġmedium": 4598,
      "Ġsolving": 4599,
      "Ġdiscovery": 4600,
      "Ġsevere": 4601,
      "ield": 4602,
      "Ġenjoying": 4603,
      "Ġestim": 4604,
      "Ġrelease": 4605,
      "Ġinitiatives": 4606,
      "Ġtrip": 4607,
      "Ġintegrating": 4608,
      "Ġpresented": 4609,
      "goti": 4610,
      "Ġstruggle": 4611,
      "Ġmarketing": 4612,
      "Ġemphasizing": 4613,
      "Ġsaying": 4614,
      "Ġabsol": 4615,
      "Ġtexture": 4616,
      "Ġwonderful": 4617,
      "Ġculinary": 4618,
      "Ġprivacy": 4619,
      "Ġindependence": 4620,
      "Ġmuscles": 4621,
      "Ġtailored": 4622,
      "Ġstumbled": 4623,
      "Ġgrasp": 4624,
      "gets": 4625,
      "tw": 4626,
      "Ġtough": 4627,
      "Ġtesting": 4628,
      "inates": 4629,
      "Ġsav": 4630,
      "Ġselling": 4631,
      "itals": 4632,
      "Ġmal": 4633,
      "Ġhoney": 4634,
      "Ġlingu": 4635,
      "Ġorient": 4636,
      "empl": 4637,
      "Ġchance": 4638,
      "Ġanthrop": 4639,
      "ums": 4640,
      "Ġfrag": 4641,
      "Ġcompet": 4642,
      "Ġstrict": 4643,
      "Ġheroes": 4644,
      "Ġhistories": 4645,
      "Ġsignals": 4646,
      "Ġnote": 4647,
      "Ġessence": 4648,
      "Ġmeditation": 4649,
      "Ġmusical": 4650,
      "Ġhumanity": 4651,
      "Ġattend": 4652,
      "Ġcombine": 4653,
      "Ġindustries": 4654,
      "Ġpreventing": 4655,
      "Ġsustainability": 4656,
      "Ġscenes": 4657,
      "Ġfarming": 4658,
      "Ġcelebrate": 4659,
      "holders": 4660,
      "Ġshift": 4661,
      "Ġmovie": 4662,
      "breaking": 4663,
      "Ġsummer": 4664,
      "Ġillustrate": 4665,
      "Ġmysterious": 4666,
      "Ġflexibility": 4667,
      "Ġsecrets": 4668,
      "Ġstereotypes": 4669,
      "Ġsomeday": 4670,
      "'d": 4671,
      "12": 4672,
      "cultural": 4673,
      "house": 4674,
      "yal": 4675,
      "Ġthom": 4676,
      "Ġcou": 4677,
      "tial": 4678,
      "Ġwin": 4679,
      "Ġfed": 4680,
      "Ġgent": 4681,
      "oles": 4682,
      "Ġrul": 4683,
      "Ġrene": 4684,
      "ode": 4685,
      "Ġliber": 4686,
      "Ġsocc": 4687,
      "Ġdisag": 4688,
      "Ġroad": 4689,
      "Ġmood": 4690,
      "Ġquanti": 4691,
      "Ġremove": 4692,
      "ords": 4693,
      "whel": 4694,
      "Ġowners": 4695,
      "Ġforming": 4696,
      "Ġparticles": 4697,
      "Ġcentered": 4698,
      "Ġbeginning": 4699,
      "Ġcodes": 4700,
      "Ġcondition": 4701,
      "ashion": 4702,
      "Ġreached": 4703,
      "Ġvariables": 4704,
      "Ġconstruc": 4705,
      "Ġmoral": 4706,
      "Ġdynamic": 4707,
      "Ġpanels": 4708,
      "Ġfighting": 4709,
      "Ġcrafting": 4710,
      "Ġphenomena": 4711,
      "Ġwebsites": 4712,
      "Ġalgorithms": 4713,
      "Ġsoccer": 4714,
      "`.": 4715,
      "Ġtend": 4716,
      "Ġborders": 4717,
      "Ġdone": 4718,
      "Ġhier": 4719,
      "active": 4720,
      "Ġforg": 4721,
      "ched": 4722,
      "mental": 4723,
      "Ġnegoti": 4724,
      "antum": 4725,
      "Ġdead": 4726,
      "Ġmeal": 4727,
      "iph": 4728,
      "Ġamounts": 4729,
      "Ġmotion": 4730,
      "Ġpositions": 4731,
      "Ġhappiness": 4732,
      "Ġformal": 4733,
      "Ġshowed": 4734,
      "Ġdiscoveries": 4735,
      "issance": 4736,
      "Ġinfluential": 4737,
      "Ġaffects": 4738,
      "Ġcontributing": 4739,
      "Ġreaching": 4740,
      "Ġholding": 4741,
      "clusion": 4742,
      "Ġcircum": 4743,
      "Ġcivilizations": 4744,
      "iki": 4745,
      "Ġbrief": 4746,
      "Ġprivate": 4747,
      "Ġadminist": 4748,
      "Ġagreed": 4749,
      "Ġframework": 4750,
      "Ġmonitoring": 4751,
      "Ġevolved": 4752,
      "Ġdatas": 4753,
      "reprene": 4754,
      "Ġmutual": 4755,
      "ĊĠĠĠĠĠĠĠĠ": 4756,
      "Ġtensions": 4757,
      "Ġthread": 4758,
      "Ġcos": 4759,
      "Ġcell": 4760,
      "Ġlot": 4761,
      "Ġstake": 4762,
      "quality": 4763,
      "aint": 4764,
      "Ġunw": 4765,
      "Ġunion": 4766,
      "Ġactively": 4767,
      "Ġfront": 4768,
      "Ġargue": 4769,
      "ips": 4770,
      "Ġoutput": 4771,
      "Ġrecre": 4772,
      "Ġexplored": 4773,
      "Ġflour": 4774,
      "Ġbread": 4775,
      "Ġrequiring": 4776,
      "Ġsafely": 4777,
      "Ġtopic": 4778,
      "Ġintegral": 4779,
      "Ġemployed": 4780,
      "Ġminimal": 4781,
      "Ġpsychology": 4782,
      "Ġrelevance": 4783,
      "Ġdemonstrate": 4784,
      "ipped": 4785,
      "Ġanswers": 4786,
      "Ġaudience": 4787,
      "Ġchristianity": 4788,
      "Ġpowers": 4789,
      "Ġoxygen": 4790,
      "Ġelectricity": 4791,
      "Ġmyself": 4792,
      "Ġocean": 4793,
      "Ġinequality": 4794,
      "aur": 4795,
      "eu": 4796,
      "oke": 4797,
      "va": 4798,
      "ym": 4799,
      "Ġast": 4800,
      "erical": 4801,
      "Ġcup": 4802,
      "Ġwest": 4803,
      "Ġfile": 4804,
      "Ġfirm": 4805,
      "Ġbul": 4806,
      "Ġdivid": 4807,
      "Ġintim": 4808,
      "Ġhi": 4809,
      "Ġhob": 4810,
      "Ġrely": 4811,
      "Ġrise": 4812,
      "usiv": 4813,
      "osed": 4814,
      "place": 4815,
      "Ġunfortunately": 4816,
      "Ġdisorders": 4817,
      "Ġarise": 4818,
      "Ġindeed": 4819,
      "Ġmother": 4820,
      "Ġprecious": 4821,
      "pression": 4822,
      "Ġcoop": 4823,
      "ologists": 4824,
      "Ġnewfound": 4825,
      "Ġpersist": 4826,
      "Ġteen": 4827,
      "Ġadvice": 4828,
      "Ġoption": 4829,
      "Ġsurger": 4830,
      "Ġtransc": 4831,
      "Ġblue": 4832,
      "Ġflat": 4833,
      "Ġtale": 4834,
      "Ġprominent": 4835,
      "Ġclassical": 4836,
      "Ġentreprene": 4837,
      "Ġpossibilities": 4838,
      "atically": 4839,
      "Ġtask": 4840,
      "Ġstatus": 4841,
      "Ġdescribe": 4842,
      "Ġcalculate": 4843,
      "Ġcommitment": 4844,
      "Ġgradually": 4845,
      "Ġsusp": 4846,
      "Ġwitness": 4847,
      "Ġancestors": 4848,
      "Ġacknowled": 4849,
      "Ġinhabit": 4850,
      "aissance": 4851,
      "bed": 4852,
      "cal": 4853,
      "ctions": 4854,
      "cons": 4855,
      "fare": 4856,
      "gers": 4857,
      "ha": 4858,
      "hum": 4859,
      "loc": 4860,
      "otion": 4861,
      "ups": 4862,
      "water": 4863,
      "Ġcast": 4864,
      "Ġcart": 4865,
      "tile": 4866,
      "Ġpie": 4867,
      "aters": 4868,
      "Ġburn": 4869,
      "Ġbott": 4870,
      "Ġnich": 4871,
      "Ġstatis": 4872,
      "ament": 4873,
      "anda": 4874,
      "Ġusage": 4875,
      "Ġunus": 4876,
      "Ġseam": 4877,
      "Ġcontaining": 4878,
      "ference": 4879,
      "arning": 4880,
      "Ġoverwhel": 4881,
      "rael": 4882,
      "Ġphone": 4883,
      "Ġtwist": 4884,
      "Ġserious": 4885,
      "Ġdesigners": 4886,
      "Ġblend": 4887,
      "Ġedges": 4888,
      "conclusion": 4889,
      "Ġcapacity": 4890,
      "Ġmemor": 4891,
      "Ġaccessible": 4892,
      "Ġhouses": 4893,
      "Ġinternet": 4894,
      "Ġethn": 4895,
      "Ġethics": 4896,
      "Ġvariations": 4897,
      "Ġlinear": 4898,
      "Ġconstruction": 4899,
      "Ġbattle": 4900,
      "Ġobserve": 4901,
      "Ġindependent": 4902,
      "Ġcompetition": 4903,
      "Ġdefinition": 4904,
      "Ġfacilitate": 4905,
      "Ġaustral": 4906,
      "Ġislam": 4907,
      "Ġalmost": 4908,
      "Ġcuisine": 4909,
      "Ġattitudes": 4910,
      "Ġhierarch": 4911,
      "Ġcircumst": 4912,
      "lin": 4913,
      "ses": 4914,
      "Ġai": 4915,
      "Ġax": 4916,
      "Ġwise": 4917,
      "Ġple": 4918,
      "Ġpair": 4919,
      "Ġtheories": 4920,
      "Ġdin": 4921,
      "ictional": 4922,
      "Ġreactions": 4923,
      "Ġenrich": 4924,
      "roud": 4925,
      "Ġisrael": 4926,
      "Ġneural": 4927,
      "illa": 4928,
      "Ġadh": 4929,
      "ello": 4930,
      "Ġparalle": 4931,
      "Ġmanaged": 4932,
      "ibl": 4933,
      "Ġexperts": 4934,
      "Ġsurve": 4935,
      "Ġengaged": 4936,
      "Ġpassage": 4937,
      "Ġelement": 4938,
      "Ġstrategic": 4939,
      "Ġwondering": 4940,
      "Ġcombined": 4941,
      "Ġwarfare": 4942,
      "Ġexpressing": 4943,
      "Ġinnovations": 4944,
      "Ġnarrative": 4945,
      "Ġstrengths": 4946,
      "Ġtraum": 4947,
      "Ġcleaning": 4948,
      "Ġcomprehension": 4949,
      "ipping": 4950,
      "Ġtemperatures": 4951,
      "Ġcompletely": 4952,
      "Ġslowly": 4953,
      "Ġbelonging": 4954,
      "Ġconvert": 4955,
      "Ġracism": 4956,
      "Ġathlet": 4957,
      "Ġparameters": 4958,
      "Ġliquid": 4959,
      "aff": 4960,
      "bing": 4961,
      "book": 4962,
      "ear": 4963,
      "friend": 4964,
      "jud": 4965,
      "vil": 4966,
      "Ġ|": 4967,
      "inc": 4968,
      "Ġcub": 4969,
      "Ġpand": 4970,
      "Ġproud": 4971,
      "Ġfine": 4972,
      "Ġfashion": 4973,
      "atoes": 4974,
      "Ġdu": 4975,
      "stre": 4976,
      "theta": 4977,
      "Ġwhis": 4978,
      "Ġisol": 4979,
      "Ġarbit": 4980,
      "Ġmanif": 4981,
      "Ġquantum": 4982,
      "Ġhero": 4983,
      "Ġnothing": 4984,
      "Ġgrap": 4985,
      "Ġafford": 4986,
      "Ġsmiled": 4987,
      "Ġworkers": 4988,
      "Ġsched": 4989,
      "cont": 4990,
      "Ġideal": 4991,
      "Ġorganized": 4992,
      "Ġartificial": 4993,
      "Ġeleg": 4994,
      "Ġreligions": 4995,
      "Ġaims": 4996,
      "Ġpopularity": 4997,
      "Ġrestric": 4998,
      "Ġparticipants": 4999,
      "Ġcomprehend": 5000,
      "Ġgardening": 5001,
      "Ġsurfaces": 5002,
      "Ġdriving": 5003,
      "Ġengineers": 5004,
      "Ġfarmers": 5005,
      "Ġclothes": 5006,
      "Ġdelicate": 5007,
      "Ġpupp": 5008,
      "Ġstreet": 5009,
      "Ġprecise": 5010,
      "Ġhoriz": 5011,
      "Ġbonds": 5012,
      "Ġunders": 5013,
      "Ġprotein": 5014,
      "disc": 5015,
      "remember": 5016,
      "Ġdangerous": 5017,
      "Ġfeedback": 5018,
      "Ġrecommend": 5019,
      "Ġrhythm": 5020,
      "Ġlikely": 5021,
      "Ġsolely": 5022,
      "Ġgentle": 5023,
      "Ġcircumstances": 5024,
      "cr": 5025,
      "ker": 5026,
      "otic": 5027,
      "top": 5028,
      "yes": 5029,
      "Ġ/": 5030,
      "Ġtension": 5031,
      "Ġaid": 5032,
      "Ġspl": 5033,
      "Ġcas": 5034,
      "tition": 5035,
      "tious": 5036,
      "reg": 5037,
      "Ġfes": 5038,
      "Ġfurn": 5039,
      "arked": 5040,
      "Ġhav": 5041,
      "acting": 5042,
      "ims": 5043,
      "aper": 5044,
      "Ġchick": 5045,
      "Ġbeach": 5046,
      "Ġshel": 5047,
      "Ġtrail": 5048,
      "Ġjam": 5049,
      "izz": 5050,
      "ectors": 5051,
      "ensity": 5052,
      "Ġpeer": 5053,
      "Ġrot": 5054,
      "Ġ17": 5055,
      "Ġthereby": 5056,
      "Ġboy": 5057,
      "Ġpersever": 5058,
      "Ġadds": 5059,
      "Ġaccomm": 5060,
      "Ġtransm": 5061,
      "Ġtransition": 5062,
      "working": 5063,
      "Ġnumerical": 5064,
      "Ġprotagon": 5065,
      "Ġdistribut": 5066,
      "Ġbreaking": 5067,
      "Ġexpans": 5068,
      "Ġorganize": 5069,
      "Ġshowing": 5070,
      "Ġpresence": 5071,
      "ographies": 5072,
      "Ġgives": 5073,
      "Ġerrors": 5074,
      "Ġsuperher": 5075,
      "Ġemployees": 5076,
      "umption": 5077,
      "Ġviews": 5078,
      "Ġauthority": 5079,
      "Ġutilizing": 5080,
      "Ġsatell": 5081,
      "Ġframeworks": 5082,
      "onomy": 5083,
      "Ġbenny": 5084,
      "Ġmillions": 5085,
      "Ġrobust": 5086,
      "Ġhydro": 5087,
      "Ġimmediately": 5088,
      "Ġtransparency": 5089,
      "Ġmoisture": 5090,
      "Ġunderstood": 5091,
      "Ġorientation": 5092,
      "Ġrenew": 5093,
      "Ġaccommod": 5094,
      ")**": 5095,
      "aud": 5096,
      "gment": 5097,
      "lib": 5098,
      "mat": 5099,
      "pred": 5100,
      "piec": 5101,
      "Ġ##": 5102,
      "Ġiron": 5103,
      "Ġsick": 5104,
      "Ġpil": 5105,
      "iture": 5106,
      "itable": 5107,
      "ara": 5108,
      "icit": 5109,
      "Ġnurs": 5110,
      "uris": 5111,
      "agers": 5112,
      "Ġchin": 5113,
      "Ġpros": 5114,
      "Ġcompar": 5115,
      "Ġcomprom": 5116,
      "Ġmoved": 5117,
      "sequ": 5118,
      "Ġscul": 5119,
      "Ġvalid": 5120,
      "Ġleader": 5121,
      "Ġbeloved": 5122,
      "Ġlocations": 5123,
      "Ġfolks": 5124,
      "Ġsocio": 5125,
      "Ġmusicians": 5126,
      "Ġkeeps": 5127,
      "Ġorganic": 5128,
      "Ġmini": 5129,
      "Ġchoice": 5130,
      "Ġattending": 5131,
      "Ġcontributed": 5132,
      "Ġapproached": 5133,
      "Ġappeal": 5134,
      "Ġstrengthen": 5135,
      "Ġindustrial": 5136,
      "Ġtransformation": 5137,
      "Ġuniversity": 5138,
      "Ġphotos": 5139,
      "Ġfilm": 5140,
      "Ġtreatments": 5141,
      "Ġinstructions": 5142,
      "Ġgardens": 5143,
      "Ġdebates": 5144,
      "Ġcontainer": 5145,
      "Ġmillion": 5146,
      "Ġmathematics": 5147,
      "Ġbrows": 5148,
      "Ġmassive": 5149,
      "Ġproteins": 5150,
      "Ġinfluenced": 5151,
      "eteenth": 5152,
      "Ġchurch": 5153,
      "Ġlemonade": 5154,
      "Ġdisagre": 5155,
      "Ġunusual": 5156,
      "_{": 5157,
      "fol": 5158,
      "ias": 5159,
      "iology": 5160,
      "ns": 5161,
      "oples": 5162,
      "taking": 5163,
      "Ġthird": 5164,
      "Ġfer": 5165,
      "Ġmember": 5166,
      "edge": 5167,
      "Ġran": 5168,
      "Ġforest": 5169,
      "Ġweeks": 5170,
      "Ġshed": 5171,
      "ione": 5172,
      "Ġsport": 5173,
      "ives": 5174,
      "alse": 5175,
      "enses": 5176,
      "Ġclick": 5177,
      "Ġindia": 5178,
      "Ġpeoples": 5179,
      "Ġbutton": 5180,
      "Ġwhereas": 5181,
      "Ġnoise": 5182,
      "Ġtransfer": 5183,
      "Ġvisually": 5184,
      "Ġformed": 5185,
      "Ġdefined": 5186,
      "Ġartwork": 5187,
      "Ġskilled": 5188,
      "ographical": 5189,
      "Ġoffered": 5190,
      "Ġbiology": 5191,
      "Ġproducing": 5192,
      "Ġaffected": 5193,
      "Ġresponses": 5194,
      "Ġtried": 5195,
      "Ġintegration": 5196,
      "Ġsurrounded": 5197,
      "Ġarchae": 5198,
      "Ġachieving": 5199,
      "Ġcomponent": 5200,
      "Ġcustomer": 5201,
      "Ġversion": 5202,
      "Ġaccuracy": 5203,
      "Ġwildlife": 5204,
      "Ġbudget": 5205,
      "Ġevaluate": 5206,
      "Ġracial": 5207,
      "despite": 5208,
      "Ġsacred": 5209,
      "Ġlaughter": 5210,
      "Ġexcessive": 5211,
      "histor": 5212,
      "Ġapplied": 5213,
      "Ġsupplies": 5214,
      "Ġopinions": 5215,
      "Ġweapons": 5216,
      "Ġatmosphere": 5217,
      "Ġniche": 5218,
      "Ġsculpt": 5219,
      "bits": 5220,
      "np": 5221,
      "some": 5222,
      "ĊĠĠĠĠĠĠĠĠĠĠĠĠĠĠĠĠ": 5223,
      "Ġtv": 5224,
      "Ġsoph": 5225,
      "Ġcards": 5226,
      "ork": 5227,
      "isl": 5228,
      "Ġhind": 5229,
      "Ġhund": 5230,
      "icks": 5231,
      "Ġstret": 5232,
      "Ġrare": 5233,
      "Ġorth": 5234,
      "Ġchina": 5235,
      "Ġvent": 5236,
      "utely": 5237,
      "unk": 5238,
      "Ġimper": 5239,
      "Ġspend": 5240,
      "gebra": 5241,
      "Ġ14": 5242,
      "Ġ15": 5243,
      "Ġmaya": 5244,
      "Ġbrave": 5245,
      "Ġnotes": 5246,
      "Ġcourage": 5247,
      "Ġfollows": 5248,
      "Ġcorresp": 5249,
      "Ġchanged": 5250,
      "Ġmonth": 5251,
      "Ġcontributes": 5252,
      "Ġphysics": 5253,
      "Ġrecognized": 5254,
      "Ġkinds": 5255,
      "Ġadapting": 5256,
      "Ġintegrity": 5257,
      "Ġholds": 5258,
      "Ġdivine": 5259,
      "Ġsalt": 5260,
      "Ġminimizing": 5261,
      "Ġreceived": 5262,
      "Ġsquare": 5263,
      "Ġadaptation": 5264,
      "Ġgathered": 5265,
      "Ġanswer": 5266,
      "Ġmystery": 5267,
      "Ġrenaissance": 5268,
      "Ġlifesty": 5269,
      "Ġmanipulation": 5270,
      "Ġdimensions": 5271,
      "Ġjapanese": 5272,
      "Ġspanish": 5273,
      "rolog": 5274,
      "Ġcrisis": 5275,
      "Ġfederal": 5276,
      "Ġhundred": 5277,
      "Ġcorrespond": 5278,
      "dim": 5279,
      "Ġtun": 5280,
      "Ġflying": 5281,
      "Ġfictional": 5282,
      "Ġbak": 5283,
      "Ġmission": 5284,
      "Ġok": 5285,
      "Ġhair": 5286,
      "Ġnerv": 5287,
      "eter": 5288,
      "ulatory": 5289,
      "Ġchann": 5290,
      "Ġsuic": 5291,
      "Ġspect": 5292,
      "thern": 5293,
      "Ġdear": 5294,
      "Ġdeals": 5295,
      "ummy": 5296,
      "Ġstring": 5297,
      "ief": 5298,
      "Ġquiet": 5299,
      "Ġconsumption": 5300,
      "Ġapple": 5301,
      "Ġperce": 5302,
      "Ġremote": 5303,
      "Ġphr": 5304,
      "Ġscript": 5305,
      "apped": 5306,
      "Ġmaria": 5307,
      "Ġmarked": 5308,
      "Ġuseful": 5309,
      "Ġmyth": 5310,
      "Ġaccounts": 5311,
      "Ġdevelopments": 5312,
      "Ġfriendship": 5313,
      "Ġorganisms": 5314,
      "Ġjourneys": 5315,
      "Ġsitting": 5316,
      "Ġdrawn": 5317,
      "Ġmagn": 5318,
      "Ġestablishing": 5319,
      "class": 5320,
      "Ġstores": 5321,
      "Ġnationalism": 5322,
      "Ġconstruct": 5323,
      "Ġgroundbreaking": 5324,
      "Ġfewer": 5325,
      "aught": 5326,
      "Ġshifts": 5327,
      "Ġexchang": 5328,
      "Ġshares": 5329,
      "Ġconstant": 5330,
      "Ġpropag": 5331,
      "Ġhospitals": 5332,
      "Ġinjury": 5333,
      "stream": 5334,
      ".âĢĿ": 5335,
      "?!": 5336,
      "aa": 5337,
      "bell": 5338,
      "can": 5339,
      "da": 5340,
      "fit": 5341,
      "gon": 5342,
      "Ġtut": 5343,
      "orrow": 5344,
      "outh": 5345,
      "Ġpage": 5346,
      "Ġpione": 5347,
      "Ġtoward": 5348,
      "Ġegg": 5349,
      "rote": 5350,
      "Ġstood": 5351,
      "ette": 5352,
      "Ġspending": 5353,
      "Ġjuris": 5354,
      "Ġdisorder": 5355,
      "Ġparent": 5356,
      "Ġtheme": 5357,
      "Ġagree": 5358,
      "tenance": 5359,
      "lowing": 5360,
      "tiveness": 5361,
      "they": 5362,
      "Ġpoor": 5363,
      "Ġengland": 5364,
      "Ġconsiderations": 5365,
      "Ġsubsequ": 5366,
      "Ġdefense": 5367,
      "Ġminor": 5368,
      "Ġclasses": 5369,
      "Ġwonders": 5370,
      "icient": 5371,
      "Ġobserv": 5372,
      "Ġgeom": 5373,
      "Ġcomputing": 5374,
      "moreover": 5375,
      "Ġuniversal": 5376,
      "Ġconsistency": 5377,
      "Ġsuggests": 5378,
      "Ġholid": 5379,
      "Ġbird": 5380,
      "Ġentirely": 5381,
      "Ġsequence": 5382,
      "Ġsuggested": 5383,
      "Ġmexican": 5384,
      "Ġdemocratic": 5385,
      "Ġvarying": 5386,
      "Ġpollution": 5387,
      "Ġlimitations": 5388,
      "Ġcommercial": 5389,
      "Ġmistakes": 5390,
      "Ġecosystems": 5391,
      "Ġstakeholders": 5392,
      "Ġfurniture": 5393,
      "gi": 5394,
      "oh": 5395,
      "ws": 5396,
      "inn": 5397,
      "oration": 5398,
      "att": 5399,
      "Ġbed": 5400,
      "Ġbaking": 5401,
      "Ġmale": 5402,
      "Ġdate": 5403,
      "Ġdie": 5404,
      "Ġhurt": 5405,
      "asm": 5406,
      "ows": 5407,
      "Ġstone": 5408,
      "Ġranging": 5409,
      "ula": 5410,
      "uli": 5411,
      "ticip": 5412,
      "Ġhearing": 5413,
      "Ġkitch": 5414,
      "aching": 5415,
      "Ġresist": 5416,
      "expl": 5417,
      "Ġcozy": 5418,
      "Ġreli": 5419,
      "Ġrelate": 5420,
      "Ġoutd": 5421,
      "Ġages": 5422,
      "Ġgrace": 5423,
      "Ġscale": 5424,
      "Ġscatter": 5425,
      "Ġrespective": 5426,
      "Ġbelow": 5427,
      "Ġmedi": 5428,
      "Ġmaintenance": 5429,
      "Ġmuse": 5430,
      "Ġcapabilities": 5431,
      "Ġprompt": 5432,
      "Ġeducators": 5433,
      "Ġpartner": 5434,
      "Ġattribut": 5435,
      "Ġamericans": 5436,
      "Ġbigger": 5437,
      "Ġoccurs": 5438,
      "Ġoccasion": 5439,
      "Ġglobe": 5440,
      "Ġmeasuring": 5441,
      "Ġmilk": 5442,
      "Ġimprovement": 5443,
      "Ġdistinc": 5444,
      "Ġobserving": 5445,
      "Ġconventional": 5446,
      "Ġnodded": 5447,
      "Ġcritically": 5448,
      "Ġrapidly": 5449,
      "Ġmexico": 5450,
      "Ġdemocr": 5451,
      "Ġrock": 5452,
      "Ġthoroughly": 5453,
      "Ġvolunte": 5454,
      "cos": 5455,
      "hy": 5456,
      "made": 5457,
      "ĠðŁ": 5458,
      "Ġsend": 5459,
      "Ġwrote": 5460,
      "Ġpun": 5461,
      "Ġbag": 5462,
      "Ġment": 5463,
      "Ġod": 5464,
      "Ġofficial": 5465,
      "enty": 5466,
      "ils": 5467,
      "Ġstead": 5468,
      "Ġrural": 5469,
      "Ġvill": 5470,
      "Ġproceed": 5471,
      "Ġplaced": 5472,
      "itig": 5473,
      "ache": 5474,
      "ava": 5475,
      "Ġexplicit": 5476,
      "Ġmanual": 5477,
      "Ġmoves": 5478,
      "Ġdoors": 5479,
      "Ġ12": 5480,
      "Ġrecon": 5481,
      "Ġmarine": 5482,
      "netic": 5483,
      "Ġhighly": 5484,
      "Ġreflection": 5485,
      "Ġpersonality": 5486,
      "pha": 5487,
      "ucture": 5488,
      "Ġcorrel": 5489,
      "issions": 5490,
      "Ġconfid": 5491,
      "Ġsites": 5492,
      "Ġdepart": 5493,
      "Ġenjoyed": 5494,
      "Ġgovernance": 5495,
      "Ġ199": 5496,
      "Ġmodeling": 5497,
      "Ġstruggling": 5498,
      "Ġsampling": 5499,
      "Ġversati": 5500,
      "Ġtraveling": 5501,
      "Ġfitness": 5502,
      "Ġinvestigate": 5503,
      "Ġrecipe": 5504,
      "Ġunfair": 5505,
      "Ġcriticism": 5506,
      "Ġwindows": 5507,
      "Ġiconic": 5508,
      "Ġdietary": 5509,
      "Ġradiation": 5510,
      "Ġchemical": 5511,
      "Ġdouble": 5512,
      "Ġconsciousness": 5513,
      "Ġathletes": 5514,
      "Ġhaven": 5515,
      "car": 5516,
      "lers": 5517,
      "oking": 5518,
      "Ġtight": 5519,
      "Ġthick": 5520,
      "Ġwel": 5521,
      "Ġwaters": 5522,
      "ref": 5523,
      "Ġmitig": 5524,
      "Ġrit": 5525,
      "adv": 5526,
      "ifies": 5527,
      "Ġcompl": 5528,
      "Ġalgebra": 5529,
      "Ġenem": 5530,
      "umin": 5531,
      "Ġemerge": 5532,
      "Ġconsult": 5533,
      "Ġprejud": 5534,
      "Ġcov": 5535,
      "Ġexperim": 5536,
      "--------------------": 5537,
      "Ġbrit": 5538,
      "overty": 5539,
      "Ġgenu": 5540,
      "owned": 5541,
      "Ġguard": 5542,
      "iversity": 5543,
      "Ġsubtle": 5544,
      "Ġfoundational": 5545,
      "Ġclassroom": 5546,
      "Ġlegacy": 5547,
      "Ġendless": 5548,
      "Ġaccessibility": 5549,
      "------------------------------------": 5550,
      "Ġexistence": 5551,
      "Ġfunding": 5552,
      "Ġembrace": 5553,
      "Ġordinary": 5554,
      "Ġbirds": 5555,
      "tism": 5556,
      "Ġuncertain": 5557,
      "Ġnutrition": 5558,
      "Ġpackaging": 5559,
      "Ġspreading": 5560,
      "Ġattract": 5561,
      "Ġsurvival": 5562,
      "Ġscenario": 5563,
      "Ġcorrectly": 5564,
      "Ġcontrolled": 5565,
      "Ġvehicles": 5566,
      "Ġwashing": 5567,
      "Ġentertainment": 5568,
      "Ġsoldiers": 5569,
      "Ġabsolutely": 5570,
      "Ġlinguistic": 5571,
      "Ġthomas": 5572,
      "Ġsurgery": 5573,
      "human": 5574,
      "Ġundersc": 5575,
      "Ġfestiv": 5576,
      "mark": 5577,
      "nat": 5578,
      "pan": 5579,
      "puts": 5580,
      "such": 5581,
      "uci": 5582,
      "viet": 5583,
      "Ġtack": 5584,
      "Ġstit": 5585,
      "Ġcaught": 5586,
      "Ġwars": 5587,
      "ales": 5588,
      "Ġpoverty": 5589,
      "Ġopt": 5590,
      "Ġhes": 5591,
      "Ġharn": 5592,
      "ime": 5593,
      "olic": 5594,
      "Ġstuff": 5595,
      "Ġround": 5596,
      "Ġsuff": 5597,
      "Ġwearing": 5598,
      "Ġplastic": 5599,
      "Ġexplo": 5600,
      "Ġindian": 5601,
      "Ġpeers": 5602,
      "Ġtherefore": 5603,
      "Ġotherwise": 5604,
      "Ġgrains": 5605,
      "Ġmarks": 5606,
      "train": 5607,
      "trans": 5608,
      "Ġflor": 5609,
      "Ġsections": 5610,
      "Ġorganizing": 5611,
      "Ġjourn": 5612,
      "Ġpresident": 5613,
      "Ġrepresented": 5614,
      "Ġcombines": 5615,
      "Ġworksh": 5616,
      "Ġswitch": 5617,
      "max": 5618,
      "Ġgeor": 5619,
      "Ġmiles": 5620,
      "Ġparticipation": 5621,
      "Ġfilms": 5622,
      "Ġelectrical": 5623,
      "Ġcontrast": 5624,
      "____": 5625,
      "Ġcultiv": 5626,
      "Ġoppon": 5627,
      "Ġjobs": 5628,
      "Ġportray": 5629,
      "Ġintroducing": 5630,
      "Ġquebec": 5631,
      "igrants": 5632,
      "Ġsharp": 5633,
      "Ġcerti": 5634,
      "Ġthrive": 5635,
      "Ġcontrolling": 5636,
      "Ġreinfor": 5637,
      "Ġhabitats": 5638,
      "Ġacceptance": 5639,
      "Ġhorse": 5640,
      "ville": 5641,
      "Ġchicken": 5642,
      "Ġperseverance": 5643,
      "Ġsophistic": 5644,
      "Ġharness": 5645,
      "eem": 5646,
      "makers": 5647,
      "num": 5648,
      "pet": 5649,
      "ship": 5650,
      "Ġtone": 5651,
      "Ġsem": 5652,
      "Ġca": 5653,
      "Ġwire": 5654,
      "Ġmos": 5655,
      "Ġdomes": 5656,
      "Ġovers": 5657,
      "roid": 5658,
      "theless": 5659,
      "Ġgaming": 5660,
      "Ġstars": 5661,
      "Ġlean": 5662,
      "Ġsum": 5663,
      "anted": 5664,
      "Ġplate": 5665,
      "Ġdisability": 5666,
      "Ġarab": 5667,
      "Ġ16": 5668,
      "Ġherbs": 5669,
      "Ġsimpl": 5670,
      "Ġinclusiv": 5671,
      "Ġbuying": 5672,
      "Ġload": 5673,
      "Ġdelving": 5674,
      "Ġrealize": 5675,
      "Ġsubs": 5676,
      "Ġfriendships": 5677,
      "Ġyeah": 5678,
      "Ġpassing": 5679,
      "Ġsensory": 5680,
      "Ġlegisl": 5681,
      "Ġimmune": 5682,
      "Ġmetaph": 5683,
      "Ġbalancing": 5684,
      "Ġcollecting": 5685,
      "Ġparticipating": 5686,
      "Ġinfr": 5687,
      "Ġemphasizes": 5688,
      "Ġnutrients": 5689,
      "Ġaccurately": 5690,
      "Ġraised": 5691,
      "Ġavoiding": 5692,
      "Ġcompetitive": 5693,
      "Ġconduct": 5694,
      "Ġattached": 5695,
      "Ġexhibit": 5696,
      "Ġmastering": 5697,
      "Ġrussia": 5698,
      "Ġfiber": 5699,
      "Ġstick": 5700,
      "Ġtrouble": 5701,
      "Ġchaos": 5702,
      "astructure": 5703,
      "Ġentrepreneurs": 5704,
      "Ġinhabitants": 5705,
      "Ġethnic": 5706,
      "cre": 5707,
      "der": 5708,
      "fast": 5709,
      "iov": 5710,
      "la": 5711,
      "no": 5712,
      "oir": 5713,
      "vas": 5714,
      "Â°": 5715,
      "eren": 5716,
      "reme": 5717,
      "Ġpir": 5718,
      "Ġbacter": 5719,
      "Ġmi": 5720,
      "Ġmere": 5721,
      "Ġhung": 5722,
      "rooms": 5723,
      "ila": 5724,
      "illy": 5725,
      "Ġexists": 5726,
      "adic": 5727,
      "Ġanticip": 5728,
      "ander": 5729,
      "illed": 5730,
      "Ġsoap": 5731,
      "Ġemail": 5732,
      "Ġclients": 5733,
      "Ġpepper": 5734,
      "Ġinterf": 5735,
      "Ġqual": 5736,
      "Ġregression": 5737,
      "Ġsignal": 5738,
      "vention": 5739,
      "icted": 5740,
      "Ġfacilities": 5741,
      "Ġequally": 5742,
      "Ġdram": 5743,
      "Ġsensitive": 5744,
      "Ġattem": 5745,
      "Ġdepth": 5746,
      "Ġdepend": 5747,
      "Ġcombination": 5748,
      "Ġenjoyable": 5749,
      "Ġdoctor": 5750,
      "Ġmindfulness": 5751,
      "Ġswim": 5752,
      "Ġwriter": 5753,
      "herence": 5754,
      "Ġfunds": 5755,
      "Ġbringing": 5756,
      "Ġimagination": 5757,
      "Ġvideos": 5758,
      "Ġinstitution": 5759,
      "Ġhousehold": 5760,
      "Ġachievements": 5761,
      "Ġrevealing": 5762,
      "Ġreferred": 5763,
      "Ġinvestigation": 5764,
      "Ġconsumers": 5765,
      "Ġfamiliarize": 5766,
      "Ġinterventions": 5767,
      "Ġbrown": 5768,
      "Ġshowcase": 5769,
      "Ġphenomenon": 5770,
      "Ġtapest": 5771,
      "Ġhuh": 5772,
      "Ġinfluencing": 5773,
      "Ġenthusiasts": 5774,
      "Ġinstruments": 5775,
      "Ġadversity": 5776,
      "Ġprocedures": 5777,
      "Ġsongs": 5778,
      "Ġmasterpiec": 5779,
      "Ġdisparities": 5780,
      "Ġboost": 5781,
      "Ġproposed": 5782,
      "Ġsuicide": 5783,
      "Ġkitchen": 5784,
      "natural": 5785,
      "Ġdomestic": 5786,
      "Ġinfrastructure": 5787,
      "'.": 5788,
      "'m": 5789,
      "solving": 5790,
      "tod": 5791,
      "âĻ": 5792,
      "Ġign": 5793,
      "Ġtex": 5794,
      "Ġwinter": 5795,
      "Ġpose": 5796,
      "Ġbible": 5797,
      "Ġbank": 5798,
      "eding": 5799,
      "anes": 5800,
      "Ġdro": 5801,
      "Ġhit": 5802,
      "lets": 5803,
      "ompl": 5804,
      "Ġnap": 5805,
      "Ġram": 5806,
      "Ġasia": 5807,
      "Ġbear": 5808,
      "Ġalive": 5809,
      "Ġsoviet": 5810,
      "iveness": 5811,
      "Ġkore": 5812,
      "Ġdesert": 5813,
      "Ġcolum": 5814,
      "print": 5815,
      "Ġovercome": 5816,
      "Ġdiscom": 5817,
      "Ġrecy": 5818,
      "Ġaccompl": 5819,
      "Ġhealthier": 5820,
      "Ġexplores": 5821,
      "Ġflo": 5822,
      "Ġflag": 5823,
      "ublic": 5824,
      "Ġgenerally": 5825,
      "Ġtreating": 5826,
      "Ġextreme": 5827,
      "Ġencouraged": 5828,
      "Ġbeneath": 5829,
      "Ġlighting": 5830,
      "Ġharmon": 5831,
      "mean": 5832,
      "guid": 5833,
      "Ġsafegu": 5834,
      "Ġvariety": 5835,
      "Ġinterested": 5836,
      "Ġdemonstrated": 5837,
      "Ġarray": 5838,
      "Ġarchitectural": 5839,
      "Ġcups": 5840,
      "Ġargument": 5841,
      "Ġconsumer": 5842,
      "Ġinterpretation": 5843,
      "Ġinterpretations": 5844,
      "Ġegypti": 5845,
      "Ġcoordinates": 5846,
      "Ġadvantage": 5847,
      "Ġimmediate": 5848,
      "model": 5849,
      "Ġinherent": 5850,
      "Ġmaximum": 5851,
      "Ġobjectives": 5852,
      "Ġgermany": 5853,
      "Ġbranch": 5854,
      "Ġtactics": 5855,
      "Ġdisputes": 5856,
      "Ġchinese": 5857,
      "Ġpropaganda": 5858,
      "Ġdistinctive": 5859,
      "Ġtapestry": 5860,
      "$,": 5861,
      "])": 5862,
      "fe": 5863,
      "fish": 5864,
      "hel": 5865,
      "sin": 5866,
      "sum": 5867,
      "ture": 5868,
      "wood": 5869,
      "onics": 5870,
      "Ġstim": 5871,
      "Ġwave": 5872,
      "Ġweren": 5873,
      "atom": 5874,
      "Ġlad": 5875,
      "acement": 5876,
      "Ġgro": 5877,
      "Ġyork": 5878,
      "oli": 5879,
      "Ġrough": 5880,
      "Ġtrav": 5881,
      "Ġprice": 5882,
      "Ġfrank": 5883,
      "Ġcompare": 5884,
      "Ġparks": 5885,
      "Ġampl": 5886,
      "ieval": 5887,
      "Ġdoor": 5888,
      "Ġ11": 5889,
      "ounced": 5890,
      "Ġdecades": 5891,
      "auss": 5892,
      "arsh": 5893,
      "Ġincluded": 5894,
      "Ġpractition": 5895,
      "Ġflash": 5896,
      "Ġmedieval": 5897,
      "ternoon": 5898,
      "Ġprotective": 5899,
      "Ġdistances": 5900,
      "Ġfoundations": 5901,
      "Ġsimilarities": 5902,
      "Ġgeneration": 5903,
      "linear": 5904,
      "Ġliteracy": 5905,
      "Ġlistened": 5906,
      "Ġbiological": 5907,
      "Ġimmigration": 5908,
      "Ġgoverning": 5909,
      "Ġfosters": 5910,
      "Ġsuppose": 5911,
      "Ġcalm": 5912,
      "Ġeconomics": 5913,
      "Ġchrist": 5914,
      "position": 5915,
      "Ġcontinuous": 5916,
      "Ġteamwork": 5917,
      "Ġcontract": 5918,
      "Ġimagined": 5919,
      "Ġimagery": 5920,
      "Ġholistic": 5921,
      "Ġobserved": 5922,
      "Ġstreets": 5923,
      "Ġevaluating": 5924,
      "Ġadvocating": 5925,
      "Ġconstitution": 5926,
      "Ġmysteries": 5927,
      "Ġalgorithm": 5928,
      "Ġmanufacturing": 5929,
      "Ġintersectionality": 5930,
      "Ġtribes": 5931,
      "Ġpushing": 5932,
      "forcement": 5933,
      "Ġaesthetics": 5934,
      "Ġintellectual": 5935,
      "Ġderived": 5936,
      "Ġghost": 5937,
      "ĊĠĠĠĠĠĠĠĠĠĠĠ": 5938,
      "Ġdemocracy": 5939,
      "Ġinclusivity": 5940,
      "Ġdiscomfort": 5941,
      "!)": 5942,
      "')": 5943,
      "([": 5944,
      "bu": 5945,
      "flow": 5946,
      "och": 5947,
      "off": 5948,
      "oving": 5949,
      "pip": 5950,
      "rac": 5951,
      "vi": 5952,
      "ĊĊĠĠĠ": 5953,
      "Ġtables": 5954,
      "Ġaverage": 5955,
      "Ġson": 5956,
      "Ġsite": 5957,
      "Ġbath": 5958,
      "Ġmot": 5959,
      "Ġmouth": 5960,
      "Ġinches": 5961,
      "Ġgad": 5962,
      "idents": 5963,
      "Ġstages": 5964,
      "ulties": 5965,
      "Ġforests": 5966,
      "Ġchec": 5967,
      "Ġven": 5968,
      "Ġvess": 5969,
      "ria": 5970,
      "Ġisland": 5971,
      "Ġintense": 5972,
      "unit": 5973,
      "Ġacting": 5974,
      "Ġfruit": 5975,
      "ucle": 5976,
      "enders": 5977,
      "Ġmeat": 5978,
      "Ġkar": 5979,
      "ocol": 5980,
      "Ġdispl": 5981,
      "entieth": 5982,
      "aved": 5983,
      "atial": 5984,
      "Ġclay": 5985,
      "Ġconsists": 5986,
      "Ġdiscour": 5987,
      "Ġdecl": 5988,
      "Ġbrains": 5989,
      "ounters": 5990,
      "Ġencounters": 5991,
      "Ġgrown": 5992,
      "Ġfaces": 5993,
      "Ġfacial": 5994,
      "ascular": 5995,
      "Ġsubm": 5996,
      "Ġtreats": 5997,
      "Ġclassm": 5998,
      "Ġequations": 5999,
      "Ġaware": 6000,
      "Ġcommonly": 6001,
      "Ġdepic": 6002,
      "Ġoperation": 6003,
      "Ġoperating": 6004,
      "Ġorigin": 6005,
      "Ġenhanced": 6006,
      "Ġwalked": 6007,
      "Ġviruses": 6008,
      "Ġcollaborative": 6009,
      "Ġincredibly": 6010,
      "Ġemphasize": 6011,
      "Ġpaying": 6012,
      "Ġcovered": 6013,
      "Ġversions": 6014,
      "points": 6015,
      "Ġbreathing": 6016,
      "load": 6017,
      "Ġagreement": 6018,
      "Ġoccurred": 6019,
      "Ġsilver": 6020,
      "Ġvisitors": 6021,
      "Ġshowcasing": 6022,
      "Ġsearching": 6023,
      "Ġrenowned": 6024,
      "Ġagricultural": 6025,
      "Ġhuge": 6026,
      "Ġmerely": 6027,
      "Ġpursuing": 6028,
      "Ġcandid": 6029,
      "Ġmanufactur": 6030,
      "Ġeastern": 6031,
      "Ġvehicle": 6032,
      "Ġcounsel": 6033,
      "Ġdiagnos": 6034,
      "Ġperception": 6035,
      "Ġtreasures": 6036,
      "Ġcoastal": 6037,
      "Ġreflects": 6038,
      "plotlib": 6039,
      "Ġbottom": 6040,
      "Ġjamie": 6041,
      "Ġworkshops": 6042,
      ",âĢĿ": 6043,
      "aust": 6044,
      "bi": 6045,
      "bies": 6046,
      "ml": 6047,
      "uate": 6048,
      "Ġtelling": 6049,
      "erate": 6050,
      "Ġsour": 6051,
      "Ġsight": 6052,
      "Ġwish": 6053,
      "Ġpiv": 6054,
      "Ġpages": 6055,
      "Ġber": 6056,
      "Ġbill": 6057,
      "isions": 6058,
      "Ġease": 6059,
      "Ġlap": 6060,
      "Ġluck": 6061,
      "Ġgest": 6062,
      "urg": 6063,
      "Ġrush": 6064,
      "iforn": 6065,
      "Ġprove": 6066,
      "Ġends": 6067,
      "Ġtrend": 6068,
      "Ġjames": 6069,
      "otal": 6070,
      "umes": 6071,
      "Ġcomple": 6072,
      "Ġcompact": 6073,
      "Ġarms": 6074,
      "ifications": 6075,
      "Ġregulatory": 6076,
      "Ġafternoon": 6077,
      "Ġunits": 6078,
      "Ġpolice": 6079,
      "Ġblending": 6080,
      "Ġfloor": 6081,
      "Ġobtain": 6082,
      "Ġamongst": 6083,
      "Ġequipped": 6084,
      "Ġanimation": 6085,
      "Ġdrag": 6086,
      "Ġreput": 6087,
      "Ġidentified": 6088,
      "Ġerror": 6089,
      "Ġlimits": 6090,
      "umptions": 6091,
      "Ġconsistently": 6092,
      "Ġentities": 6093,
      "Ġstored": 6094,
      "Ġsamples": 6095,
      "Ġsecondary": 6096,
      "Ġimplementation": 6097,
      "Ġwarmth": 6098,
      "Ġjewel": 6099,
      "Ġstream": 6100,
      "Ġroutine": 6101,
      "Ġspirituality": 6102,
      "aimed": 6103,
      "Ġmuscle": 6104,
      "Ġjohnson": 6105,
      "Ġselected": 6106,
      "Ġsubstances": 6107,
      "Ġinvestment": 6108,
      "Ġassessment": 6109,
      "Ġgrief": 6110,
      "Ġconstantly": 6111,
      "Ġfinger": 6112,
      "Ġbaby": 6113,
      "Ġphotographs": 6114,
      "Ġfantasy": 6115,
      "Ġdoll": 6116,
      "Ġcooperation": 6117,
      "Ġmemorable": 6118,
      "Ġtrauma": 6119,
      "Ġhundreds": 6120,
      "Ġokay": 6121,
      "aver": 6122,
      "ba": 6123,
      "bel": 6124,
      "during": 6125,
      "may": 6126,
      "pread": 6127,
      "wing": 6128,
      "war": 6129,
      "ãģ": 6130,
      "Ġou": 6131,
      "Ġcues": 6132,
      "Ġcrops": 6133,
      "Ġwides": 6134,
      "real": 6135,
      "Ġmes": 6136,
      "Ġmold": 6137,
      "Ġol": 6138,
      "ares": 6139,
      "Ġhaz": 6140,
      "Ġharsh": 6141,
      "Ġeld": 6142,
      "Ġlosing": 6143,
      "Ġnin": 6144,
      "Ġnucle": 6145,
      "Ġyellow": 6146,
      "Ġyouth": 6147,
      "Ġraw": 6148,
      "ami": 6149,
      "Ġvivid": 6150,
      "tically": 6151,
      "Ġquad": 6152,
      "Ġquest": 6153,
      "Ġrecall": 6154,
      "Ġdecre": 6155,
      "Ġski": 6156,
      "Ġloving": 6157,
      "Ġaccident": 6158,
      "Ġaccomp": 6159,
      "intage": 6160,
      "Ġtalents": 6161,
      "Ġmush": 6162,
      "Ġassets": 6163,
      "Ġassemb": 6164,
      "Ġassumptions": 6165,
      "Ġpresents": 6166,
      "ographic": 6167,
      "Ġactors": 6168,
      "Ġconfident": 6169,
      "Ġvertical": 6170,
      "Ġbegins": 6171,
      "Ġ198": 6172,
      "Ġswing": 6173,
      "Ġcaliforn": 6174,
      "Ġillness": 6175,
      "Ġdetermining": 6176,
      "Ġconcerning": 6177,
      "Ġdivide": 6178,
      "Ġrestaur": 6179,
      "ensional": 6180,
      "Ġaccordingly": 6181,
      "Ġsquir": 6182,
      "Ġdemonstrating": 6183,
      "Ġalternatives": 6184,
      "Ġpanel": 6185,
      "Ġraise": 6186,
      "Ġstatement": 6187,
      "Ġwooden": 6188,
      "Ġangles": 6189,
      "Ġcookies": 6190,
      "onomic": 6191,
      "Ġsummary": 6192,
      "Ġcomposition": 6193,
      "Ġsubstance": 6194,
      "year": 6195,
      "Ġwebsite": 6196,
      "Ġpartnerships": 6197,
      "Ġarticle": 6198,
      "Ġbuddh": 6199,
      "Ġrabbit": 6200,
      "Ġconcentr": 6201,
      "Ġdescrip": 6202,
      "Ġdelightful": 6203,
      "Ġdinner": 6204,
      "friendly": 6205,
      "Ġmanifest": 6206,
      "Ġtutorial": 6207,
      "Ġcorrelation": 6208,
      "Ġsophisticated": 6209,
      "Ġpractitioners": 6210,
      "Ġwidespread": 6211,
      "Ġaccompan": 6212,
      "\"?": 6213,
      "craft": 6214,
      "dot": 6215,
      "ga": 6216,
      "han": 6217,
      "last": 6218,
      "non": 6219,
      "name": 6220,
      "ront": 6221,
      "tes": 6222,
      "Ġtick": 6223,
      "ero": 6224,
      "erie": 6225,
      "tiqu": 6226,
      "orph": 6227,
      "Ġpy": 6228,
      "Ġpenc": 6229,
      "Ġfly": 6230,
      "atable": 6231,
      "itarian": 6232,
      "Ġmigr": 6233,
      "Ġdust": 6234,
      "arant": 6235,
      "arrow": 6236,
      "Ġtoxic": 6237,
      "Ġree": 6238,
      "Ġreven": 6239,
      "Ġrelying": 6240,
      "asure": 6241,
      "amin": 6242,
      "amiliar": 6243,
      "ull": 6244,
      "Ġforever": 6245,
      "Ġforced": 6246,
      "Ġvintage": 6247,
      "Ġenlight": 6248,
      "ticultural": 6249,
      "Ġshell": 6250,
      "Ġspark": 6251,
      "Ġuncom": 6252,
      "Ġpron": 6253,
      "Ġfrance": 6254,
      "pped": 6255,
      "Ġadver": 6256,
      "Ġadherence": 6257,
      "uctive": 6258,
      "ogen": 6259,
      "Ġstruck": 6260,
      "Ġagencies": 6261,
      "Ġbrush": 6262,
      "Ġtea": 6263,
      "Ġpoems": 6264,
      "Ġexplorers": 6265,
      "Ġreader": 6266,
      "Ġconsideration": 6267,
      "Ġglance": 6268,
      "Ġdistress": 6269,
      "Ġfinance": 6270,
      "Ġfactory": 6271,
      "Ġhistorians": 6272,
      "Ġdrama": 6273,
      "Ġstructural": 6274,
      "Ġnaturally": 6275,
      "rete": 6276,
      "Ġappeared": 6277,
      "Ġdirection": 6278,
      "Ġchronic": 6279,
      "Ġcollaborate": 6280,
      "Ġtransformed": 6281,
      "Ġreduces": 6282,
      "Ġdrive": 6283,
      "people": 6284,
      "Ġdebate": 6285,
      "Ġpaths": 6286,
      "Ġradio": 6287,
      "Ġdifficulties": 6288,
      "Ġvolume": 6289,
      "Ġturtles": 6290,
      "Ġsurvive": 6291,
      "Ġpassionate": 6292,
      "Ġcoordinate": 6293,
      "Ġtargeted": 6294,
      "Ġreviews": 6295,
      "Ġjudgment": 6296,
      "Ġthriving": 6297,
      "Ġdatab": 6298,
      "Ġwidely": 6299,
      "Ġinstrument": 6300,
      "--------------------------------------------": 6301,
      "Ġdogs": 6302,
      "Ġgolden": 6303,
      "Ġclaims": 6304,
      "Ġneuro": 6305,
      "Ġarbitration": 6306,
      "Ġexpansion": 6307,
      "Ġdisagreements": 6308,
      "Ġlifestyle": 6309,
      "dimensional": 6310,
      "Ġchannels": 6311,
      "Ġjurisd": 6312,
      "Ġsubsequent": 6313,
      "Ġsquirrel": 6314,
      ".)": 6315,
      "[:": 6316,
      "cy": 6317,
      "cri": 6318,
      "down": 6319,
      "gree": 6320,
      "hi": 6321,
      "jo": 6322,
      "met": 6323,
      "table": 6324,
      "typ": 6325,
      "turn": 6326,
      "ww": 6327,
      "ya": 6328,
      "ĊĠĠ": 6329,
      "Ġ{": 6330,
      "Ġtang": 6331,
      "Ġske": 6332,
      "Ġpour": 6333,
      "Ġpond": 6334,
      "anthrop": 6335,
      "Ġlake": 6336,
      "stone": 6337,
      "Ġrevel": 6338,
      "Ġrehab": 6339,
      "eterm": 6340,
      "Ġore": 6341,
      "Ġoral": 6342,
      "Ġchances": 6343,
      "Ġchocol": 6344,
      "Ġvic": 6345,
      "Ġlever": 6346,
      "Ġaloud": 6347,
      "abet": 6348,
      "ope": 6349,
      "istry": 6350,
      "Ġdeal": 6351,
      "Ġdepression": 6352,
      "ustration": 6353,
      "Ġcontains": 6354,
      "ella": 6355,
      "Ġroads": 6356,
      "Ġprevention": 6357,
      "Ġdesire": 6358,
      "Ġrelative": 6359,
      "ologist": 6360,
      "Ġnewly": 6361,
      "rices": 6362,
      "Ġinvent": 6363,
      "Ġbub": 6364,
      "Ġbasket": 6365,
      "Ġeffect": 6366,
      "Ġcourts": 6367,
      "Ġdevelopers": 6368,
      "Ġfinds": 6369,
      "Ġlocate": 6370,
      "phones": 6371,
      "Ġmatrices": 6372,
      "Ġextended": 6373,
      "Ġdemands": 6374,
      "Ġsensors": 6375,
      "Ġperformances": 6376,
      "Ġconfusion": 6377,
      "Ġimmense": 6378,
      "Ġvegan": 6379,
      "Ġresponsibilities": 6380,
      "Ġtitles": 6381,
      "Ġbroken": 6382,
      "Ġassociation": 6383,
      "Ġmeetings": 6384,
      "Ġinteractive": 6385,
      "Ġhyper": 6386,
      "Ġcircle": 6387,
      "Ġinstruction": 6388,
      "Ġauthorities": 6389,
      "Ġmorality": 6390,
      "Ġlasting": 6391,
      "Ġpacked": 6392,
      "Ġevaluation": 6393,
      "Ġroutes": 6394,
      "Ġcolleag": 6395,
      "Ġprecision": 6396,
      "Ġgrandpar": 6397,
      "Ġgirls": 6398,
      "Ġsentences": 6399,
      "Ġdominant": 6400,
      "Ġcolonialism": 6401,
      "Ġbranches": 6402,
      "Ġterritories": 6403,
      "Ġshopping": 6404,
      "Ġreports": 6405,
      "Ġinterviews": 6406,
      "Ġclinical": 6407,
      "ikihow": 6408,
      "Ġacknowledging": 6409,
      "Ġoverwhelmed": 6410,
      "Ġobservations": 6411,
      "Ġpivotal": 6412,
      "\".": 6413,
      "gs": 6414,
      "iac": 6415,
      "len": 6416,
      "lim": 6417,
      "mind": 6418,
      "part": 6419,
      "su": 6420,
      "sen": 6421,
      "tex": 6422,
      "Ġil": 6423,
      "Ġtro": 6424,
      "inting": 6425,
      "estim": 6426,
      "Ġsel": 6427,
      "Ġsally": 6428,
      "Ġsnow": 6429,
      "Ġcel": 6430,
      "Ġwow": 6431,
      "Ġfell": 6432,
      "Ġbay": 6433,
      "Ġbatch": 6434,
      "itate": 6435,
      "itely": 6436,
      "Ġmur": 6437,
      "Ġdom": 6438,
      "isely": 6439,
      "omach": 6440,
      "Ġlung": 6441,
      "Ġnarrow": 6442,
      "iders": 6443,
      "Ġstock": 6444,
      "Ġride": 6445,
      "irms": 6446,
      "Ġcongr": 6447,
      "Ġforth": 6448,
      "odies": 6449,
      "ighter": 6450,
      "Ġtracking": 6451,
      "Ġspices": 6452,
      "Ġjack": 6453,
      "oting": 6454,
      "Ġunr": 6455,
      "anting": 6456,
      "Ġadequ": 6457,
      "Ġresol": 6458,
      "Ġdisrup": 6459,
      "atit": 6460,
      "Ġstrang": 6461,
      "Ġclues": 6462,
      "Ġtechnical": 6463,
      "Ġanymore": 6464,
      "thetic": 6465,
      "Ġadvances": 6466,
      "Ġposes": 6467,
      "Ġsettle": 6468,
      "Ġguit": 6469,
      "Ġguarant": 6470,
      "Ġseeks": 6471,
      "aws": 6472,
      "Ġpotatoes": 6473,
      "Ġdetective": 6474,
      "Ġfunctionality": 6475,
      "Ġhandy": 6476,
      "Ġcontinues": 6477,
      "Ġpreservation": 6478,
      "Ġlegs": 6479,
      "Ġbiographies": 6480,
      "Ġimmigrants": 6481,
      "Ġjoining": 6482,
      "Ġoperate": 6483,
      "Ġsuccessfully": 6484,
      "fortable": 6485,
      "Ġreleasing": 6486,
      "Ġ196": 6487,
      "Ġinvesting": 6488,
      "Ġsuppor": 6489,
      "Ġadventur": 6490,
      "Ġreturned": 6491,
      "Ġviewers": 6492,
      "Ġstruggled": 6493,
      "gener": 6494,
      "Ġpayment": 6495,
      "Ġadaptations": 6496,
      "Ġcelebrating": 6497,
      "related": 6498,
      "Ġnutrient": 6499,
      "Ġbreathtaking": 6500,
      "Ġharves": 6501,
      "Ġreplace": 6502,
      "Ġagreements": 6503,
      "Ġneighbors": 6504,
      "Ġsymbolism": 6505,
      "Ġarmed": 6506,
      "Ġhonor": 6507,
      "Ġhearts": 6508,
      "Ġcameras": 6509,
      "Ġresidential": 6510,
      "Ġlinked": 6511,
      "Ġpublished": 6512,
      "Ġromantic": 6513,
      "Ġvulnerable": 6514,
      "Ġmountains": 6515,
      "Ġsatisfaction": 6516,
      "Ġresonate": 6517,
      "Ġpredictions": 6518,
      "Ġluther": 6519,
      "Ġpuzzle": 6520,
      "Ġtissue": 6521,
      "Ġnuanced": 6522,
      "Ġrestrictions": 6523,
      "Ġjewelry": 6524,
      "Ġchocolate": 6525,
      "17": 6526,
      "\\_": 6527,
      "backs": 6528,
      "dri": 6529,
      "dep": 6530,
      "free": 6531,
      "mr": 6532,
      "min": 6533,
      "nam": 6534,
      "utive": 6535,
      "Ġtire": 6536,
      "inity": 6537,
      "Ġcath": 6538,
      "Ġfu": 6539,
      "Ġfro": 6540,
      "Ġfancy": 6541,
      "Ġfalse": 6542,
      "Ġoven": 6543,
      "Ġhang": 6544,
      "Ġlas": 6545,
      "Ġrever": 6546,
      "Ġgave": 6547,
      "Ġgods": 6548,
      "Ġgaps": 6549,
      "Ġgamb": 6550,
      "Ġyummy": 6551,
      "Ġstomach": 6552,
      "Ġrivers": 6553,
      "Ġchat": 6554,
      "Ġspin": 6555,
      "Ġcomparing": 6556,
      "Ġkid": 6557,
      "itivity": 6558,
      "Ġcreators": 6559,
      "Ġemma": 6560,
      "Ġcommand": 6561,
      "Ġapps": 6562,
      "Ġeverywhere": 6563,
      "exist": 6564,
      "Ġcoff": 6565,
      "Ġrecovery": 6566,
      "Ġregulation": 6567,
      "Ġgrass": 6568,
      "Ġsauce": 6569,
      "Ġessentially": 6570,
      "Ġformat": 6571,
      "Ġsubject": 6572,
      "Ġexpenses": 6573,
      "Ġpromise": 6574,
      "Ġcorn": 6575,
      "Ġcoral": 6576,
      "Ġoffice": 6577,
      "Ġprofess": 6578,
      "Ġawa": 6579,
      "Ġentry": 6580,
      "Ġproduced": 6581,
      "Ġproductivity": 6582,
      "Ġaccessories": 6583,
      "Ġchildhood": 6584,
      "Ġcombat": 6585,
      "Ġappealing": 6586,
      "Ġconceptual": 6587,
      "Ġguides": 6588,
      "Ġdirections": 6589,
      "Ġharder": 6590,
      "Ġillnesses": 6591,
      "Ġsupernatural": 6592,
      "Ġemergence": 6593,
      "Ġemployment": 6594,
      "Ġhousing": 6595,
      "many": 6596,
      "Ġspirits": 6597,
      "Ġtransformations": 6598,
      "Ġemphasized": 6599,
      "Ġoptimization": 6600,
      "Ġwatched": 6601,
      "Ġfairness": 6602,
      "emicals": 6603,
      "Ġoppos": 6604,
      "Ġhorror": 6605,
      "Ġlabels": 6606,
      "Ġaccountability": 6607,
      "Ġnodes": 6608,
      "scale": 6609,
      "Ġdelivering": 6610,
      "Ġrooted": 6611,
      "Ġarticles": 6612,
      "Ġperceptions": 6613,
      "Ġimpressive": 6614,
      "Ġmolecules": 6615,
      "Ġvictor": 6616,
      "Ġdisappoint": 6617,
      "Ġadministr": 6618,
      "Ġrecreation": 6619,
      "Ġparallel": 6620,
      "Ġrecommendations": 6621,
      "Ġdistributed": 6622,
      "Ġsatellite": 6623,
      "Ġreliable": 6624,
      "Ġcovid": 6625,
      "Ġbritain": 6626,
      "Ġuncomfortable": 6627,
      "Ġvictim": 6628,
      "\")": 6629,
      "11": 6630,
      "30": 6631,
      "fall": 6632,
      "list": 6633,
      "mun": 6634,
      "night": 6635,
      "wal": 6636,
      "yle": 6637,
      "Ġaids": 6638,
      "ona": 6639,
      "Ġcake": 6640,
      "Ġfon": 6641,
      "Ġbind": 6642,
      "Ġbits": 6643,
      "Ġmary": 6644,
      "leb": 6645,
      "Ġtoler": 6646,
      "Ġeigen": 6647,
      "ican": 6648,
      "Ġluc": 6649,
      "Ġgauss": 6650,
      "Ġnic": 6651,
      "Ġwhom": 6652,
      "oler": 6653,
      "idity": 6654,
      "Ġstable": 6655,
      "Ġrub": 6656,
      "Ġexcep": 6657,
      "Ġasian": 6658,
      "Ġchose": 6659,
      "odiversity": 6660,
      "Ġweights": 6661,
      "Ġimaging": 6662,
      "Ġspain": 6663,
      "Ġje": 6664,
      "Ġjul": 6665,
      "Ġmetis": 6666,
      "Ġket": 6667,
      "aches": 6668,
      "Ġcommission": 6669,
      "Ġconserv": 6670,
      "irect": 6671,
      "arted": 6672,
      "Ġrelates": 6673,
      "Ġremaining": 6674,
      "Ġagents": 6675,
      "Ġagency": 6676,
      "Ġphase": 6677,
      "Ġnotion": 6678,
      "Ġscar": 6679,
      "Ġopens": 6680,
      "Ġgenes": 6681,
      "Ġblock": 6682,
      "away": 6683,
      "Ġfirsthand": 6684,
      "Ġglue": 6685,
      "Ġsubgen": 6686,
      "Ġbreaks": 6687,
      "Ġimportantly": 6688,
      "Ġpassions": 6689,
      "Ġteaches": 6690,
      "Ġlawy": 6691,
      "Ġdrin": 6692,
      "Ġoperators": 6693,
      "Ġwheat": 6694,
      "Ġpromotes": 6695,
      "Ġfilling": 6696,
      "Ġ194": 6697,
      "Ġ$$": 6698,
      "Ġfulf": 6699,
      "Ġobservation": 6700,
      "Ġinteracting": 6701,
      "Ġrestoration": 6702,
      "Ġviewpoints": 6703,
      "Ġresulted": 6704,
      "Ġperfectly": 6705,
      "Ġinterpre": 6706,
      "Ġmorning": 6707,
      "values": 6708,
      "Ġfairly": 6709,
      "Ġbattles": 6710,
      "Ġfalling": 6711,
      "Ġdescribing": 6712,
      "Ġstrive": 6713,
      "Ġencountered": 6714,
      "Ġmeasurements": 6715,
      "Ġunfold": 6716,
      "Ġqueer": 6717,
      "Ġcryst": 6718,
      "Ġcrypt": 6719,
      "Ġweaknesses": 6720,
      "Ġinjuries": 6721,
      "Ġmotivation": 6722,
      "Ġbabies": 6723,
      "Ġemotionally": 6724,
      "Ġcampaigns": 6725,
      "Ġprayer": 6726,
      "Ġromance": 6727,
      "Ġquantities": 6728,
      "Ġexplicitly": 6729,
      "uminum": 6730,
      "Ġjournal": 6731,
      "today": 6732,
      "Ġrecyc": 6733,
      "guideline": 6734,
      "Ġbuddhism": 6735,
      "Ġadvertis": 6736,
      "atitude": 6737,
      "Ġgaussian": 6738,
      "date": 6739,
      "even": 6740,
      "facts": 6741,
      "gest": 6742,
      "ka": 6743,
      "oys": 6744,
      "pa": 6745,
      "sm": 6746,
      "sec": 6747,
      "tang": 6748,
      "zing": 6749,
      "Ġsaving": 6750,
      "Ġcash": 6751,
      "oric": 6752,
      "orous": 6753,
      "Ġwelf": 6754,
      "Ġpin": 6755,
      "Ġped": 6756,
      "Ġfif": 6757,
      "Ġfirms": 6758,
      "Ġbones": 6759,
      "itted": 6760,
      "Ġdating": 6761,
      "Ġdys": 6762,
      "ari": 6763,
      "arter": 6764,
      "icking": 6765,
      "Ġlunch": 6766,
      "elly": 6767,
      "acle": 6768,
      "Ġreass": 6769,
      "Ġretain": 6770,
      "image": 6771,
      "uration": 6772,
      "Ġstro": 6773,
      "vereign": 6774,
      "Ġvector": 6775,
      "oretical": 6776,
      "Ġsparked": 6777,
      "Ġjun": 6778,
      "umps": 6779,
      "umph": 6780,
      "Ġseven": 6781,
      "Ġsovereign": 6782,
      "ively": 6783,
      "**.": 6784,
      "Ġatoms": 6785,
      "Ġfears": 6786,
      "Ġovercoming": 6787,
      "Ġgratitude": 6788,
      "rics": 6789,
      "Ġsmile": 6790,
      "Ġcharge": 6791,
      "Ġgreet": 6792,
      "Ġpottery": 6793,
      "Ġthinkers": 6794,
      "Ġexpected": 6795,
      "Ġmeanings": 6796,
      "Ġpromising": 6797,
      "Ġmatplotlib": 6798,
      "Ġfascinated": 6799,
      "Ġdiscussed": 6800,
      "Ġartifacts": 6801,
      "Ġpracticed": 6802,
      "Ġawes": 6803,
      "Ġcontrovers": 6804,
      "Ġbiases": 6805,
      "Ġbiodiversity": 6806,
      "Ġcombinations": 6807,
      "Ġwheel": 6808,
      "Ġwarri": 6809,
      "Ġsupports": 6810,
      "Ġthoughtful": 6811,
      "Ġtriumph": 6812,
      "Ġbalanced": 6813,
      "Ġpressing": 6814,
      "Ġgeographical": 6815,
      "Ġmixing": 6816,
      "Ġmixture": 6817,
      "Ġdetermined": 6818,
      "Ġrespectful": 6819,
      "Ġsquares": 6820,
      "Ġdemonstrates": 6821,
      "Ġinstalled": 6822,
      "Ġputting": 6823,
      "Ġcivilization": 6824,
      "Ġroutines": 6825,
      "Ġunfamiliar": 6826,
      "Ġcanadian": 6827,
      "Ġrobots": 6828,
      "Ġsnipp": 6829,
      "Ġalignment": 6830,
      "Ġmanipulate": 6831,
      "Ġadopt": 6832,
      "Ġpaintings": 6833,
      "Ġcriminal": 6834,
      "represent": 6835,
      "Ġacknowledge": 6836,
      "Ġobjective": 6837,
      "Ġhabitat": 6838,
      "Ġboxes": 6839,
      "Ġimmersive": 6840,
      "Ġvulnerability": 6841,
      "Ġfingers": 6842,
      "Ġarrangements": 6843,
      "Ġpaid": 6844,
      "Ġlatest": 6845,
      "Ġdrugs": 6846,
      "Ġhobbies": 6847,
      "Ġprotagonists": 6848,
      "Ġmuseum": 6849,
      "Ġgenuine": 6850,
      "Ġtackle": 6851,
      "Ġcoffee": 6852,
      "('": 6853,
      "(\\": 6854,
      "15": 6855,
      "bor": 6856,
      "fig": 6857,
      "good": 6858,
      "giving": 6859,
      "ki": 6860,
      "lig": 6861,
      "men": 6862,
      "rome": 6863,
      "size": 6864,
      "tons": 6865,
      "vis": 6866,
      "yme": 6867,
      "ãĥ": 6868,
      "Ġts": 6869,
      "Ġtast": 6870,
      "Ġcoc": 6871,
      "Ġpine": 6872,
      "Ġfle": 6873,
      "Ġband": 6874,
      "Ġdil": 6875,
      "Ġdad": 6876,
      "Ġinputs": 6877,
      "Ġlon": 6878,
      "Ġlose": 6879,
      "Ġgif": 6880,
      "Ġgast": 6881,
      "Ġstays": 6882,
      "Ġsturd": 6883,
      "char": 6884,
      "Ġitaly": 6885,
      "Ġaside": 6886,
      "Ġchemicals": 6887,
      "Ġvan": 6888,
      "Ġprol": 6889,
      "oses": 6890,
      "Ġenforcement": 6891,
      "aints": 6892,
      "ticul": 6893,
      "Ġshots": 6894,
      "Ġintended": 6895,
      "Ġspr": 6896,
      "Ġspots": 6897,
      "Ġjer": 6898,
      "Ġunknown": 6899,
      "Ġdegree": 6900,
      "Ġprices": 6901,
      "Ġadj": 6902,
      "Ġcomplement": 6903,
      "Ġmeticul": 6904,
      "Ġallerg": 6905,
      "Ġindex": 6906,
      "Ġamend": 6907,
      "Ġros": 6908,
      "Ġprem": 6909,
      "Ġrelatable": 6910,
      "Ġgrav": 6911,
      "ooked": 6912,
      "Ġinclusion": 6913,
      "Ġsket": 6914,
      "Ġloyal": 6915,
      "Ġpoem": 6916,
      "Ġthank": 6917,
      "Ġrealistic": 6918,
      "Ġschem": 6919,
      "Ġlocally": 6920,
      "Ġedit": 6921,
      "Ġtalented": 6922,
      "Ġbreeding": 6923,
      "Ġminer": 6924,
      "Ġgenerated": 6925,
      "Ġstir": 6926,
      "Ġconfusing": 6927,
      "Ġmetab": 6928,
      "Ġguiding": 6929,
      "Ġfreely": 6930,
      "she": 6931,
      "shap": 6932,
      "cape": 6933,
      "Ġtrusted": 6934,
      "Ġeco": 6935,
      "Ġuniversities": 6936,
      "Ġemphasis": 6937,
      "Ġaudio": 6938,
      "axis": 6939,
      "firstly": 6940,
      "Ġchristians": 6941,
      "Ġcooked": 6942,
      "Ġconventions": 6943,
      "Ġprecisely": 6944,
      "Ġcoping": 6945,
      "Ġepic": 6946,
      "Ġqueen": 6947,
      "Ġreminded": 6948,
      "Ġintrigued": 6949,
      "Ġsequences": 6950,
      "Ġcyc": 6951,
      "Ġsubstanti": 6952,
      "discipl": 6953,
      "Ġdelivery": 6954,
      "Ġcrime": 6955,
      "Ġexpanding": 6956,
      "Ġpreviously": 6957,
      "Ġspoke": 6958,
      "Ġspoken": 6959,
      "Ġupdates": 6960,
      "Ġauthenticity": 6961,
      "Ġrussian": 6962,
      "Ġmountain": 6963,
      "Ġbowl": 6964,
      "Ġvocab": 6965,
      "Ġforgot": 6966,
      "Ġdataset": 6967,
      "Ġisolation": 6968,
      "Ġimperial": 6969,
      "Ġgeorge": 6970,
      "Ġharmonious": 6971,
      "Ġlady": 6972,
      "Ġmotor": 6973,
      "Ġnineteenth": 6974,
      "Ġnuclear": 6975,
      "Ġcalifornia": 6976,
      "lastly": 6977,
      "Ġadequate": 6978,
      "Ġgambling": 6979,
      "Ġkettle": 6980,
      "Ġawesome": 6981,
      "(\"": 6982,
      ".*": 6983,
      "29": 6984,
      "=\"": 6985,
      "cs": 6986,
      "cv": 6987,
      "cur": 6988,
      "hol": 6989,
      "ience": 6990,
      "iological": 6991,
      "los": 6992,
      "mons": 6993,
      "power": 6994,
      "rin": 6995,
      "random": 6996,
      "tech": 6997,
      "Ġtasty": 6998,
      "oning": 6999,
      "Ġcounts": 7000,
      "oral": 7001,
      "Ġwarning": 7002,
      "rec": 7003,
      "alian": 7004,
      "Ġpec": 7005,
      "Ġtheoretical": 7006,
      "Ġbol": 7007,
      "Ġbite": 7008,
      "Ġmim": 7009,
      "Ġmich": 7010,
      "Ġmamm": 7011,
      "Ġdan": 7012,
      "arad": 7013,
      "arity": 7014,
      "arking": 7015,
      "Ġho": 7016,
      "Ġhall": 7017,
      "learn": 7018,
      "acer": 7019,
      "Ġreward": 7020,
      "Ġgiant": 7021,
      "ersonal": 7022,
      "amps": 7023,
      "verbal": 7024,
      "apple": 7025,
      "Ġchair": 7026,
      "Ġvit": 7027,
      "Ġbeef": 7028,
      "Ġaluminum": 7029,
      "abs": 7030,
      "tices": 7031,
      "Ġship": 7032,
      "Ġshade": 7033,
      "Ġlitig": 7034,
      "Ġintensity": 7035,
      "Ġabund": 7036,
      "Ġunfor": 7037,
      "Ġplots": 7038,
      "Ġevoke": 7039,
      "Ġempt": 7040,
      "esteem": 7041,
      "Ġalloc": 7042,
      "Ġexplan": 7043,
      "Ġexplos": 7044,
      "ificent": 7045,
      "Ġbuttons": 7046,
      "Ġconser": 7047,
      "Ġcoins": 7048,
      "Ġoutcome": 7049,
      "bert": 7050,
      "Ġscary": 7051,
      "Ġteas": 7052,
      "Ġtelev": 7053,
      "who": 7054,
      "Ġessay": 7055,
      "Ġdownload": 7056,
      "Ġmainly": 7057,
      "Ġdistingu": 7058,
      "Ġcurve": 7059,
      "airy": 7060,
      "Ġresearching": 7061,
      "tility": 7062,
      "Ġanime": 7063,
      "Ġconfront": 7064,
      "Ġphysically": 7065,
      "Ġsucceed": 7066,
      "Ġrepro": 7067,
      "Ġrepublic": 7068,
      "Ġappreciating": 7069,
      "Ġoperational": 7070,
      "Ġappears": 7071,
      "Ġinvestors": 7072,
      "Ġ$\\": 7073,
      "Ġyounger": 7074,
      "Ġlayout": 7075,
      "Ġglobally": 7076,
      "Ġnetworking": 7077,
      "Ġenhances": 7078,
      "Ġadapted": 7079,
      "Ġprinciple": 7080,
      "Ġpresentation": 7081,
      "Ġruns": 7082,
      "ammar": 7083,
      "Ġglobalization": 7084,
      "Ġfiles": 7085,
      "Ġvariable": 7086,
      "Ġelectrons": 7087,
      "Ġreceiving": 7088,
      "Ġlastly": 7089,
      "Ġphilosophical": 7090,
      "aughter": 7091,
      "Ġcelebration": 7092,
      "poon": 7093,
      "point": 7094,
      "Ġdamaged": 7095,
      "Ġcultivating": 7096,
      "Ġturkey": 7097,
      "Ġalien": 7098,
      "Ġevolve": 7099,
      "Ġevolving": 7100,
      "Ġfundament": 7101,
      "Ġinvestments": 7102,
      "Ġanxious": 7103,
      "Ġfootball": 7104,
      "Ġdestr": 7105,
      "Ġflexible": 7106,
      "Ġexcitedly": 7107,
      "Ġcardiov": 7108,
      "Ġwidth": 7109,
      "alytic": 7110,
      "Ġpermut": 7111,
      "color": 7112,
      "Ġdecorative": 7113,
      "Ġhorses": 7114,
      "Ġrelaxation": 7115,
      "Ġrepeat": 7116,
      "Ġintention": 7117,
      "Ġdisciplines": 7118,
      "Ġconcentration": 7119,
      "Ġdurability": 7120,
      "Ġhypo": 7121,
      "Ġbridge": 7122,
      "Ġseamlessly": 7123,
      "Ġperceived": 7124,
      "Ġmagnificent": 7125,
      "Ġeggs": 7126,
      "Ġrituals": 7127,
      "Ġcompliance": 7128,
      "Ġprejudice": 7129,
      "Ġcultivate": 7130,
      "Ġsafeguard": 7131,
      "Ġgestures": 7132,
      "Ġleveraging": 7133,
      "Ġsturdy": 7134,
      "books": 7135,
      "did": 7136,
      "gn": 7137,
      "lab": 7138,
      "uous": 7139,
      "word": 7140,
      "your": 7141,
      "zil": 7142,
      "Ġâ": 7143,
      "Ġaer": 7144,
      "orig": 7145,
      "ala": 7146,
      "Ġpac": 7147,
      "Ġpets": 7148,
      "ato": 7149,
      "Ġbold": 7150,
      "Ġmand": 7151,
      "Ġdrop": 7152,
      "Ġhide": 7153,
      "Ġecho": 7154,
      "ectiveness": 7155,
      "Ġreaction": 7156,
      "Ġyog": 7157,
      "urb": 7158,
      "ury": 7159,
      "Ġstation": 7160,
      "ulary": 7161,
      "agger": 7162,
      "tering": 7163,
      "Ġitem": 7164,
      "Ġorg": 7165,
      "Ġchest": 7166,
      "plom": 7167,
      "optional": 7168,
      "Ġusual": 7169,
      "Ġtrick": 7170,
      "Ġaband": 7171,
      "Ġuncon": 7172,
      "Ġneat": 7173,
      "Ġfrustr": 7174,
      "Ġseat": 7175,
      "Ġseaf": 7176,
      "Ġplacing": 7177,
      "ardigr": 7178,
      "Ġdisrupt": 7179,
      "orship": 7180,
      "Ġrose": 7181,
      "Ġrows": 7182,
      "Ġperpet": 7183,
      "aterials": 7184,
      "Ġrelief": 7185,
      "Ġremoving": 7186,
      "Ġaging": 7187,
      "Ġdecay": 7188,
      "Ġfunny": 7189,
      "Ġsafer": 7190,
      "Ġrespectively": 7191,
      "Ġprocessed": 7192,
      "Ġsystemic": 7193,
      "phys": 7194,
      "ventional": 7195,
      "Ġdetect": 7196,
      "Ġtalent": 7197,
      "Ġdistant": 7198,
      "Ġaspiring": 7199,
      "Ġgenerating": 7200,
      "Ġtreated": 7201,
      "Ġ==": 7202,
      "Ġproviders": 7203,
      "Ġextrem": 7204,
      "ields": 7205,
      "Ġattack": 7206,
      "Ġdiplom": 7207,
      "Ġstig": 7208,
      "Ġmont": 7209,
      "Ġenduring": 7210,
      "Ġvalued": 7211,
      "Ġrepair": 7212,
      "Ġpreval": 7213,
      "Ġmindful": 7214,
      "Ġveter": 7215,
      "Ġopened": 7216,
      "Ġcamarad": 7217,
      "Ġcolored": 7218,
      "Ġze": 7219,
      "Ġdevotion": 7220,
      "Ġembed": 7221,
      "Ġreaches": 7222,
      "Ġnecessarily": 7223,
      "Ġcollections": 7224,
      "Ġgear": 7225,
      "Ġgeography": 7226,
      "Ġbeautifully": 7227,
      "Ġpapers": 7228,
      "Ġavailability": 7229,
      "Ġquestioning": 7230,
      "Ġsoup": 7231,
      "Ġdriven": 7232,
      "Ġphilosophers": 7233,
      "Ġjews": 7234,
      "Ġstatements": 7235,
      "Ġfemin": 7236,
      "Ġdescribes": 7237,
      "Ġstriking": 7238,
      "Ġcategor": 7239,
      "Ġdifficulty": 7240,
      "Ġpalest": 7241,
      "Ġsynthetic": 7242,
      "Ġcrafted": 7243,
      "Ġconstitutes": 7244,
      "Ġadopted": 7245,
      "Ġearned": 7246,
      "Ġenthusiasm": 7247,
      "Ġmaximize": 7248,
      "Ġhospital": 7249,
      "Ġgarlic": 7250,
      "Ġrhythms": 7251,
      "Ġterritory": 7252,
      "Ġeagerly": 7253,
      "Ġmotivations": 7254,
      "Ġrabbits": 7255,
      "Ġencompasses": 7256,
      "Ġdispute": 7257,
      "Ġaltered": 7258,
      "Ġdescription": 7259,
      "Ġprioritiz": 7260,
      "Ġcrowd": 7261,
      "Ġownership": 7262,
      "Ġislamic": 7263,
      "Ġwhisper": 7264,
      "Ġelegant": 7265,
      "Ġshelter": 7266,
      "Ġhydrogen": 7267,
      "Ġpilgr": 7268,
      "Ġbrowser": 7269,
      "Ġexchanges": 7270,
      "uliar": 7271,
      "Ġcertification": 7272,
      "Ġtexas": 7273,
      "Ġaccomplish": 7274,
      "Ġtravels": 7275,
      "build": 7276,
      "Ġkarate": 7277,
      "Ġclassmates": 7278,
      "Ġaccidentally": 7279,
      "Ġoregon": 7280,
      "Ġbasketball": 7281,
      "Ġsovereignty": 7282,
      "Ġsnippet": 7283,
      "Ġminerals": 7284,
      "Ġvocabulary": 7285,
      "Ġpeculiar": 7286,
      "Ġcardiovascular": 7287,
      "Ġunconventional": 7288,
      "Ġcamaraderie": 7289,
      "//": 7290,
      "14": 7291,
      "bility": 7292,
      "do": 7293,
      "etic": 7294,
      "hib": 7295,
      "nes": 7296,
      "ok": 7297,
      "rific": 7298,
      "tun": 7299,
      "Ġtests": 7300,
      "ini": 7301,
      "Ġastr": 7302,
      "erts": 7303,
      "enment": 7304,
      "Ġwed": 7305,
      "Ġfold": 7306,
      "Ġbibl": 7307,
      "anks": 7308,
      "Ġdye": 7309,
      "Ġdairy": 7310,
      "Ġhaw": 7311,
      "lem": 7312,
      "Ġeight": 7313,
      "icop": 7314,
      "eling": 7315,
      "ste": 7316,
      "economic": 7317,
      "Ġreti": 7318,
      "Ġnile": 7319,
      "Ġnest": 7320,
      "Ġnurt": 7321,
      "Ġstem": 7322,
      "Ġstaff": 7323,
      "Ġru": 7324,
      "Ġexempl": 7325,
      "Ġitalian": 7326,
      "ematic": 7327,
      "Ġchop": 7328,
      "Ġva": 7329,
      "Ġench": 7330,
      "Ġlie": 7331,
      "Ġtrains": 7332,
      "otes": 7333,
      "Ġunn": 7334,
      "Ġdegre": 7335,
      "Ġpride": 7336,
      "Ġplenty": 7337,
      "Ġ(\"": 7338,
      "Ġunderp": 7339,
      "Ġcreature": 7340,
      "Ġcredit": 7341,
      "Ġemissions": 7342,
      "Ġmanager": 7343,
      "ieties": 7344,
      "Ġupset": 7345,
      "uality": 7346,
      "Ġrelatively": 7347,
      "Ġsynd": 7348,
      "berg": 7349,
      "Ġrectang": 7350,
      "Ġgrammar": 7351,
      "Ġscroll": 7352,
      "Ġpoets": 7353,
      "Ġfinished": 7354,
      "Ġfunctioning": 7355,
      "Ġ30": 7356,
      "Ġcarries": 7357,
      "Ġelev": 7358,
      "Ġlegend": 7359,
      "Ġkeyboard": 7360,
      "Ġmulticultural": 7361,
      "Ġperformed": 7362,
      "Ġconfirm": 7363,
      "Ġdepos": 7364,
      "Ġdepicted": 7365,
      "Ġelite": 7366,
      "Ġcoding": 7367,
      "Ġreleased": 7368,
      "Ġnorthern": 7369,
      "Ġmagnetic": 7370,
      "----------------------------------": 7371,
      "resh": 7372,
      "Ġvisualize": 7373,
      "Ġclosed": 7374,
      "Ġexisted": 7375,
      "Ġoneself": 7376,
      "Ġimprovements": 7377,
      "Ġsinging": 7378,
      "hey": 7379,
      "Ġreddit": 7380,
      "Ġcoverage": 7381,
      "Ġingredient": 7382,
      "Ġinterpersonal": 7383,
      "Ġdebt": 7384,
      "Ġdebts": 7385,
      "Ġ2016": 7386,
      "Ġcloth": 7387,
      "Ġboundary": 7388,
      "Ġgenetics": 7389,
      "Ġfeminist": 7390,
      "Ġangel": 7391,
      "Ġcapturing": 7392,
      "Ġsymbolic": 7393,
      "Ġcyber": 7394,
      "Ġsecurely": 7395,
      "Ġkingdom": 7396,
      "Ġathle": 7397,
      "Ġrolling": 7398,
      "Ġfibers": 7399,
      "Ġcarrying": 7400,
      "-------------------------------": 7401,
      "Ġhunting": 7402,
      "Ġdeserves": 7403,
      "Ġdiscipline": 7404,
      "Ġmolecular": 7405,
      "Ġtissues": 7406,
      "Ġjumping": 7407,
      "Ġmobile": 7408,
      "Ġconstructing": 7409,
      "Ġdatasets": 7410,
      "Ġstatistical": 7411,
      "Ġhorizont": 7412,
      "discovery": 7413,
      "Ġsuperhero": 7414,
      "matrix": 7415,
      "predict": 7416,
      "Ġnervous": 7417,
      "Ġhesit": 7418,
      "Ġmetaphor": 7419,
      "Ġmasterpiece": 7420,
      "meanwhile": 7421,
      "Ġdepicting": 7422,
      "Ġouter": 7423,
      "Ġskiing": 7424,
      "Ġassembly": 7425,
      "Ġenlightenment": 7426,
      "[:,": 7427,
      "Ġsupportive": 7428,
      "Ġtirelessly": 7429,
      "Ġlitigation": 7430,
      "Ġbiblical": 7431,
      "Ġdegrees": 7432,
      "\":": 7433,
      "25": 7434,
      "?âĢĿ": 7435,
      "bul": 7436,
      "ca": 7437,
      "count": 7438,
      "gent": 7439,
      "hello": 7440,
      "ois": 7441,
      "pal": 7442,
      "paced": 7443,
      "race": 7444,
      "tan": 7445,
      "west": 7446,
      "inform": 7447,
      "Ġsan": 7448,
      "Ġsenti": 7449,
      "Ġsending": 7450,
      "Ġsibl": 7451,
      "Ġcow": 7452,
      "Ġcass": 7453,
      "till": 7454,
      "organ": 7455,
      "Ġwikihow": 7456,
      "Ġpig": 7457,
      "Ġtheater": 7458,
      "Ġfoss": 7459,
      "Ġmapping": 7460,
      "Ġdile": 7461,
      "Ġdiction": 7462,
      "Ġhem": 7463,
      "icy": 7464,
      "Ġly": 7465,
      "Ġlob": 7466,
      "ster": 7467,
      "ece": 7468,
      "Ġrej": 7469,
      "Ġrecess": 7470,
      "Ġgaining": 7471,
      "Ġgases": 7472,
      "Ġneck": 7473,
      "ilitation": 7474,
      "imp": 7475,
      "Ġrays": 7476,
      "Ġexacer": 7477,
      "ulas": 7478,
      "Ġchains": 7479,
      "odes": 7480,
      "Ġshoes": 7481,
      "Ġtrim": 7482,
      "anta": 7483,
      "Ġfraud": 7484,
      "ogle": 7485,
      "ocent": 7486,
      "Ġarom": 7487,
      "Ġundergo": 7488,
      "Ġcred": 7489,
      "Ġrobo": 7490,
      "Ġhelicop": 7491,
      "Ġ13": 7492,
      "Ġdesires": 7493,
      "Ġovernight": 7494,
      "Ġinstantly": 7495,
      "Ġcoexist": 7496,
      "Ġboys": 7497,
      "timmy": 7498,
      "Ġevenly": 7499,
      "Ġscot": 7500,
      "Ġkeys": 7501,
      "Ġkept": 7502,
      "Ġinven": 7503,
      "grad": 7504,
      "Ġsmoking": 7505,
      "which": 7506,
      "Ġbackd": 7507,
      "Ġrealizing": 7508,
      "Ġblind": 7509,
      "iances": 7510,
      "Ġowner": 7511,
      "Ġvisits": 7512,
      "Ġencry": 7513,
      "Ġcareers": 7514,
      "fici": 7515,
      "Ġtalked": 7516,
      "Ġfactories": 7517,
      "Ġclassification": 7518,
      "Ġhandmade": 7519,
      "insp": 7520,
      "Ġextend": 7521,
      "Ġextends": 7522,
      "Ġanimated": 7523,
      "Ġsenses": 7524,
      "Ġverbal": 7525,
      "Ġjoined": 7526,
      "Ġpolitic": 7527,
      "ashing": 7528,
      "Ġescal": 7529,
      "ecessary": 7530,
      "Ġmenu": 7531,
      "Ġdeciding": 7532,
      "Ġemergency": 7533,
      "Ġemploying": 7534,
      "Ġecological": 7535,
      "health": 7536,
      "Ġphilanthrop": 7537,
      "Ġsample": 7538,
      "Ġsoul": 7539,
      "Ġcovering": 7540,
      "Ġmedication": 7541,
      "Ġtextures": 7542,
      "Ġtargets": 7543,
      "Ġimplemented": 7544,
      "Ġrhet": 7545,
      "Ġanswered": 7546,
      "Ġshifting": 7547,
      "Ġlosses": 7548,
      "Ġroute": 7549,
      "Ġsurprising": 7550,
      "Ġepis": 7551,
      "Ġdedication": 7552,
      "Ġadvocacy": 7553,
      "Ġfeatured": 7554,
      "Ġindicate": 7555,
      "Ġpowder": 7556,
      "Ġassignment": 7557,
      "Ġexecution": 7558,
      "Ġparameter": 7559,
      "Ġrecommended": 7560,
      "Ġprocedure": 7561,
      "Ġpurchase": 7562,
      "Ġlatin": 7563,
      "Ġcherished": 7564,
      "Ġbanks": 7565,
      "Ġrigorous": 7566,
      "Ġsettlers": 7567,
      "Ġcompeting": 7568,
      "Ġunwanted": 7569,
      "Ġnursing": 7570,
      "Ġversatile": 7571,
      "Ġexperiments": 7572,
      "olitical": 7573,
      "Ġgadgets": 7574,
      "Ġdiscourse": 7575,
      "Ġcolleagues": 7576,
      "Ġfonts": 7577,
      "Ġwelfare": 7578,
      "Ġsubstantial": 7579,
      "Ġempty": 7580,
      "Ġtelevision": 7581,
      "Ġpacific": 7582,
      "Ġunnecessary": 7583,
      "Ġsyndrome": 7584,
      "Ġsiblings": 7585,
      "Ġexacerb": 7586,
      "21": 7587,
      "bow": 7588,
      "band": 7589,
      "born": 7590,
      "hop": 7591,
      "oom": 7592,
      "pill": 7593,
      "pass": 7594,
      "sam": 7595,
      "tar": 7596,
      "Ġtempor": 7597,
      "estion": 7598,
      "onti": 7599,
      "Ġsort": 7600,
      "Ġsays": 7601,
      "Ġsorts": 7602,
      "Ġcv": 7603,
      "Ġcot": 7604,
      "enny": 7605,
      "Ġpit": 7606,
      "Ġpitch": 7607,
      "Ġpizz": 7608,
      "Ġbell": 7609,
      "Ġbuck": 7610,
      "Ġmac": 7611,
      "Ġmount": 7612,
      "anal": 7613,
      "Ġlush": 7614,
      "Ġloud": 7615,
      "Ġupper": 7616,
      "Ġgd": 7617,
      "Ġger": 7618,
      "Ġgam": 7619,
      "Ġwhist": 7620,
      "igma": 7621,
      "Ġstones": 7622,
      "Ġrome": 7623,
      "ulates": 7624,
      "ague": 7625,
      "Ġcomment": 7626,
      "Ġcomplications": 7627,
      "Ġproof": 7628,
      "tick": 7629,
      "Ġsho": 7630,
      "Ġshake": 7631,
      "Ġlively": 7632,
      "mentation": 7633,
      "Ġtraced": 7634,
      "Ġimbal": 7635,
      "iest": 7636,
      "Ġadorn": 7637,
      "Ġdism": 7638,
      "Ġroyal": 7639,
      "Ġinterference": 7640,
      "Ġcoeff": 7641,
      "Ġrelatives": 7642,
      "Ġexpert": 7643,
      "Ġevening": 7644,
      "Ġcalls": 7645,
      "Ġregime": 7646,
      "Ġdece": 7647,
      "Ġscared": 7648,
      "Ġneedle": 7649,
      "Ġbrill": 7650,
      "Ġteeth": 7651,
      "Ġinvite": 7652,
      "Ġinviting": 7653,
      "pted": 7654,
      "Ġafro": 7655,
      "Ġtwentieth": 7656,
      "Ġcrack": 7657,
      "Ġtypical": 7658,
      "Ġeffectiveness": 7659,
      "Ġwrap": 7660,
      "Ġlocals": 7661,
      "Ġcurric": 7662,
      "Ġfinish": 7663,
      "Ġorganiz": 7664,
      "parts": 7665,
      "Ġdrink": 7666,
      "Ġbike": 7667,
      "Ġspeeds": 7668,
      "Ġjoint": 7669,
      "Ġappreciated": 7670,
      "Ġguided": 7671,
      "Ġ197": 7672,
      "Ġcompanions": 7673,
      "Ġeconomies": 7674,
      "Ġzone": 7675,
      "Ġtriang": 7676,
      "ossible": 7677,
      "Ġ2020": 7678,
      "Ġpressures": 7679,
      "Ġnecessit": 7680,
      "Ġhygi": 7681,
      "Ġposture": 7682,
      "Ġcontrasting": 7683,
      "Ġcivic": 7684,
      "Ġadaptability": 7685,
      "Ġautonomy": 7686,
      "Ġgatherings": 7687,
      "Ġnutritional": 7688,
      "Ġtestament": 7689,
      "Ġinvolvement": 7690,
      "Ġdescribed": 7691,
      "Ġintersect": 7692,
      "Ġcontainers": 7693,
      "Ġfrequency": 7694,
      "Ġelectro": 7695,
      "Ġcycle": 7696,
      "Ġcompositions": 7697,
      "Ġadvocate": 7698,
      "Ġcoordination": 7699,
      "Ġoils": 7700,
      "Ġscholar": 7701,
      "thesis": 7702,
      "Ġadopting": 7703,
      "Ġpicked": 7704,
      "Ġindicates": 7705,
      "Ġtaxes": 7706,
      "Ġresidents": 7707,
      "Ġsentence": 7708,
      "Ġrocks": 7709,
      "Ġresponding": 7710,
      "Ġicon": 7711,
      "Ġsacrific": 7712,
      "modern": 7713,
      "Ġlaid": 7714,
      "Ġadverse": 7715,
      "Ġrevealed": 7716,
      "Ġbuddhist": 7717,
      "Ġclubs": 7718,
      "Ġabsorb": 7719,
      "Ġrepeated": 7720,
      "Ġtreasure": 7721,
      "Ġcorporate": 7722,
      "writing": 7723,
      "Ġhierarchies": 7724,
      "Ġpandemic": 7725,
      "Ġproudly": 7726,
      "Ġrotation": 7727,
      "Ġphrase": 7728,
      "Ġgeometric": 7729,
      "Ġoutdoor": 7730,
      "Ġmitigate": 7731,
      "Ġenemies": 7732,
      "Ġuncertainty": 7733,
      "Ġopponent": 7734,
      "Ġreinforcing": 7735,
      "Ġnapole": 7736,
      "Ġvessels": 7737,
      "Ġpencil": 7738,
      "Ġrevelation": 7739,
      "Ġrehabilitation": 7740,
      "depth": 7741,
      "Ġinterpreting": 7742,
      "Ġembedded": 7743,
      "200": 7744,
      "aire": 7745,
      "di": 7746,
      "ho": 7747,
      "high": 7748,
      "kh": 7749,
      "mb": 7750,
      "mf": 7751,
      "oven": 7752,
      "ris": 7753,
      "sim": 7754,
      "spe": 7755,
      "wid": 7756,
      "yard": 7757,
      "Ġtor": 7758,
      "Ġau": 7759,
      "Ġsne": 7760,
      "enn": 7761,
      "Ġfought": 7762,
      "itory": 7763,
      "Ġdav": 7764,
      "Ġduty": 7765,
      "Ġdaughter": 7766,
      "Ġinfer": 7767,
      "Ġhus": 7768,
      "learning": 7769,
      "Ġlen": 7770,
      "state": 7771,
      "Ġreduction": 7772,
      "Ġgate": 7773,
      "owers": 7774,
      "iger": 7775,
      "ado": 7776,
      "agraph": 7777,
      "emon": 7778,
      "Ġchords": 7779,
      "Ġlets": 7780,
      "keep": 7781,
      "osa": 7782,
      "Ġalleg": 7783,
      "atever": 7784,
      "pled": 7785,
      "Ġshall": 7786,
      "Ġtracks": 7787,
      "istan": 7788,
      "Ġjos": 7789,
      "Ġseal": 7790,
      "Ġseed": 7791,
      "Ġheal": 7792,
      "Ġcompounds": 7793,
      "Ġmeets": 7794,
      "Ġmeats": 7795,
      "Ġken": 7796,
      "Ġatom": 7797,
      "Ġresc": 7798,
      "Ġcontempl": 7799,
      "Ġdisney": 7800,
      "igned": 7801,
      "anship": 7802,
      "Ġimpossible": 7803,
      "Ġparad": 7804,
      "Ġclust": 7805,
      "Ġindoor": 7806,
      "Ġamaz": 7807,
      "Ġcoal": 7808,
      "see": 7809,
      "Ġrecover": 7810,
      "Ġregister": 7811,
      "Ġaddiction": 7812,
      "obia": 7813,
      "Ġtwists": 7814,
      "Ġoptical": 7815,
      "Ġpoland": 7816,
      "Ġcriter": 7817,
      "Ġrespected": 7818,
      "Ġgreece": 7819,
      "encing": 7820,
      "Ġwellness": 7821,
      "roscop": 7822,
      "Ġoblig": 7823,
      "together": 7824,
      "Ġformer": 7825,
      "Ġafterward": 7826,
      "Ġfirstly": 7827,
      "Ġsciences": 7828,
      "Ġcaps": 7829,
      "Ġclever": 7830,
      "Ġbusy": 7831,
      "Ġincreases": 7832,
      "Ġattacks": 7833,
      "Ġspeakers": 7834,
      "Ġelim": 7835,
      "Ġbeginners": 7836,
      "Ġdeepen": 7837,
      "ashed": 7838,
      "Ġvegg": 7839,
      "Ġairpl": 7840,
      "Ġadaptive": 7841,
      "Ġembod": 7842,
      "Ġsuperior": 7843,
      "Ġreturning": 7844,
      "Ġtransformative": 7845,
      "Ġflower": 7846,
      "Ġtherapists": 7847,
      "Ġposters": 7848,
      "Ġcomfortably": 7849,
      "Ġimaginary": 7850,
      "cepting": 7851,
      "Ġstewards": 7852,
      "Ġinstalling": 7853,
      "Ġwarmly": 7854,
      "Ġarchitects": 7855,
      "Ġraising": 7856,
      "Ġangle": 7857,
      "Ġreflected": 7858,
      "Ġmechanics": 7859,
      "Ġcolleges": 7860,
      "Ġinvestigating": 7861,
      "Ġcalculated": 7862,
      "Ġcaptured": 7863,
      "Ġtowns": 7864,
      "Ġconverting": 7865,
      "Ġpeacefully": 7866,
      "Ġcollector": 7867,
      "Ġdefinitions": 7868,
      "Ġdestination": 7869,
      "Ġacadem": 7870,
      "Ġscratch": 7871,
      "Ġpermission": 7872,
      "Ġcommerce": 7873,
      "Ġdolph": 7874,
      "------------------------------": 7875,
      "Ġclarity": 7876,
      "Ġvocal": 7877,
      "Ġnuances": 7878,
      "Ġadministration": 7879,
      "Ġtranscend": 7880,
      "Ġstatistics": 7881,
      "Ġaustralian": 7882,
      "Ġrenewable": 7883,
      "Ġsculptures": 7884,
      "Ġholidays": 7885,
      "exploring": 7886,
      "Ġsteady": 7887,
      "Ġlegislation": 7888,
      "Ġbacteria": 7889,
      "Ġattempts": 7890,
      "Ġcandidates": 7891,
      "Ġunravel": 7892,
      "Ġguitar": 7893,
      "Ġfuels": 7894,
      "Ġlawyers": 7895,
      "Ġorgans": 7896,
      "\"),": 7897,
      "blo": 7898,
      "gian": 7899,
      "mic": 7900,
      "page": 7901,
      "rit": 7902,
      "ran": 7903,
      "sch": 7904,
      "sub": 7905,
      "spec": 7906,
      "uh": 7907,
      "ux": 7908,
      "zema": 7909,
      "{\\": 7910,
      "ĊĊ": 7911,
      "Ġtum": 7912,
      "Ġtiles": 7913,
      "estic": 7914,
      "Ġcs": 7915,
      "Ġcaring": 7916,
      "Ġcauti": 7917,
      "tible": 7918,
      "tifs": 7919,
      "Ġpure": 7920,
      "Ġpip": 7921,
      "Ġpue": 7922,
      "Ġpier": 7923,
      "Ġfont": 7924,
      "Ġbinary": 7925,
      "Ġborrow": 7926,
      "Ġmas": 7927,
      "Ġdess": 7928,
      "Ġdough": 7929,
      "Ġdancing": 7930,
      "Ġdna": 7931,
      "omorph": 7932,
      "Ġlink": 7933,
      "stop": 7934,
      "start": 7935,
      "ecraft": 7936,
      "Ġgay": 7937,
      "Ġgall": 7938,
      "Ġwhatever": 7939,
      "olf": 7940,
      "Ġstems": 7941,
      "Ġrati": 7942,
      "Ġrib": 7943,
      "Ġriding": 7944,
      "Ġexagger": 7945,
      "essed": 7946,
      "amic": 7947,
      "uls": 7948,
      "Ġforens": 7949,
      "agan": 7950,
      "apse": 7951,
      "emade": 7952,
      "emble": 7953,
      "Ġvel": 7954,
      "Ġleaf": 7955,
      "usions": 7956,
      "Ġbeans": 7957,
      "unting": 7958,
      "Ġspatial": 7959,
      "Ġjava": 7960,
      "Ġadoles": 7961,
      "Ġheated": 7962,
      "kings": 7963,
      "Ġkit": 7964,
      "Ġkim": 7965,
      "Ġkne": 7966,
      "Ġemper": 7967,
      "Ġpean": 7968,
      "Ġinterior": 7969,
      "Ġupcoming": 7970,
      "Ġpregn": 7971,
      "weight": 7972,
      "Ġinsulation": 7973,
      "Ġsimulations": 7974,
      "Ġsmell": 7975,
      "Ġloans": 7976,
      "Ġlovely": 7977,
      "Ġmode": 7978,
      "Ġaccum": 7979,
      "Ġtransactions": 7980,
      "ernel": 7981,
      "Ġblank": 7982,
      "Ġfluct": 7983,
      "Ġhighest": 7984,
      "Ġvisibility": 7985,
      "worth": 7986,
      "Ġtooth": 7987,
      "Ġchallenged": 7988,
      "conduc": 7989,
      "Ġbehave": 7990,
      "Ġapples": 7991,
      "Ġexcer": 7992,
      "Ġprofit": 7993,
      "Ġanalog": 7994,
      "Ġcritics": 7995,
      "Ġbio": 7996,
      "Ġende": 7997,
      "Ġphysiological": 7998,
      "atchew": 7999,
      "Ġprinting": 8000,
      "Ġestate": 8001,
      "Ġgreatly": 8002,
      "Ġestablishment": 8003,
      "Ġillum": 8004,
      "Ġshouldn": 8005,
      "Ġmilest": 8006,
      "Ġpresenting": 8007,
      "Ġvirus": 8008,
      "Ġtransforming": 8009,
      "Ġbehavioral": 8010,
      "Ġconversely": 8011,
      "Ġconstraints": 8012,
      "box": 8013,
      "Ġcontracts": 8014,
      "Ġmedications": 8015,
      "Ġpreferred": 8016,
      "Ġ2019": 8017,
      "Ġpathways": 8018,
      "Ġrhyme": 8019,
      "Ġdamages": 8020,
      "Ġraises": 8021,
      "Ġbattery": 8022,
      "Ġnegatively": 8023,
      "Ġoppress": 8024,
      "Ġhighlighted": 8025,
      "Ġsurprised": 8026,
      "Ġcope": 8027,
      "Ġarrive": 8028,
      "Ġarrival": 8029,
      "Ġcategory": 8030,
      "Ġattractive": 8031,
      "Ġtermin": 8032,
      "Ġpeaceful": 8033,
      "Ġstopped": 8034,
      "Ġannual": 8035,
      "Ġcattle": 8036,
      "greg": 8037,
      "Ġautomation": 8038,
      "Ġexpanded": 8039,
      "Ġdetailed": 8040,
      "Ġexecut": 8041,
      "Ġexperimenting": 8042,
      "Ġlaunch": 8043,
      "effective": 8044,
      "Ġupdate": 8045,
      "Ġspanning": 8046,
      "Ġcapitalism": 8047,
      "Ġcaterpill": 8048,
      "Ġcounterparts": 8049,
      "Ġthreatened": 8050,
      "Ġnonetheless": 8051,
      "Ġdeserts": 8052,
      "Ġfluid": 8053,
      "Ġthrowing": 8054,
      "choose": 8055,
      "Ġprobably": 8056,
      "askatchew": 8057,
      "eutic": 8058,
      "Ġdivided": 8059,
      "earth": 8060,
      "Ġsuperheroes": 8061,
      "Ġprosper": 8062,
      "Ġconfidently": 8063,
      "advant": 8064,
      "oirs": 8065,
      "Ġswimming": 8066,
      "Ġdescriptions": 8067,
      "Ġrevenue": 8068,
      "type": 8069,
      "abetes": 8070,
      "Ġgrandparents": 8071,
      "generational": 8072,
      "Ġtolerance": 8073,
      "Ġcrystal": 8074,
      "Ġloyalty": 8075,
      "Ġforgotten": 8076,
      "Ġmimic": 8077,
      "Ġseafood": 8078,
      "Ġrhetoric": 8079,
      "Ġpizza": 8080,
      "Ġhygiene": 8081,
      "Ġcriteria": 8082,
      "askatchewan": 8083,
      "field": 8084,
      "his": 8085,
      "kets": 8086,
      "lity": 8087,
      "oth": 8088,
      "oves": 8089,
      "oons": 8090,
      "rance": 8091,
      "rence": 8092,
      "sex": 8093,
      "uity": 8094,
      "uge": 8095,
      "win": 8096,
      "wis": 8097,
      "zes": 8098,
      "Ġiv": 8099,
      "Ġtries": 8100,
      "inos": 8101,
      "Ġaqu": 8102,
      "Ġthes": 8103,
      "Ġsod": 8104,
      "Ġsaskatchewan": 8105,
      "Ġcin": 8106,
      "Ġcock": 8107,
      "Ġwet": 8108,
      "Ġfans": 8109,
      "Ġbach": 8110,
      "Ġborder": 8111,
      "Ġbilly": 8112,
      "Ġmouse": 8113,
      "anas": 8114,
      "anning": 8115,
      "arks": 8116,
      "Ġhiding": 8117,
      "level": 8118,
      "Ġears": 8119,
      "omb": 8120,
      "icing": 8121,
      "Ġles": 8122,
      "tha": 8123,
      "Ġut": 8124,
      "Ġgra": 8125,
      "Ġgaz": 8126,
      "ura": 8127,
      "ett": 8128,
      "Ġrings": 8129,
      "Ġexcept": 8130,
      "amond": 8131,
      "ulum": 8132,
      "ada": 8133,
      "chron": 8134,
      "Ġasc": 8135,
      "apy": 8136,
      "emen": 8137,
      "emed": 8138,
      "Ġcham": 8139,
      "Ġalco": 8140,
      "Ġalpha": 8141,
      "rian": 8142,
      "ritis": 8143,
      "ticism": 8144,
      "Ġweigh": 8145,
      "Ġshad": 8146,
      "Ġshown": 8147,
      "Ġintoler": 8148,
      "una": 8149,
      "Ġtricks": 8150,
      "Ġneut": 8151,
      "ouses": 8152,
      "illance": 8153,
      "Ġfrustration": 8154,
      "Ġseash": 8155,
      "Ġcompr": 8156,
      "Ġdispos": 8157,
      "Ġdisaster": 8158,
      "Ġarmy": 8159,
      "Ġstrain": 8160,
      "asters": 8161,
      "ipher": 8162,
      "Ġpeak": 8163,
      "Ġmotifs": 8164,
      "Ġquir": 8165,
      "Ġdesk": 8166,
      "Ġgoogle": 8167,
      "Ġdifferenti": 8168,
      "Ġrelies": 8169,
      "Ġnewsp": 8170,
      "Ġstudied": 8171,
      "Ġrecur": 8172,
      "Ġregulate": 8173,
      "Ġnobody": 8174,
      "Ġgrant": 8175,
      "Ġgrants": 8176,
      "rows": 8177,
      "Ġloves": 8178,
      "Ġprovin": 8179,
      "Ġdelib": 8180,
      "portion": 8181,
      "Ġrealism": 8182,
      "iants": 8183,
      "Ġvisited": 8184,
      "Ġparticle": 8185,
      "Ġprotections": 8186,
      "Ġrequest": 8187,
      "Ġspecializing": 8188,
      "Ġequitable": 8189,
      "Ġinflamm": 8190,
      "Ġattemp": 8191,
      "Ġdiabetes": 8192,
      "Ġsupported": 8193,
      "Ġnonpro": 8194,
      "Ġopenly": 8195,
      "iddles": 8196,
      "Ġfigur": 8197,
      "Ġbrother": 8198,
      "Ġdevast": 8199,
      "Ġintegrated": 8200,
      "Ġexpressed": 8201,
      "Ġembro": 8202,
      "Ġlimiting": 8203,
      "Ġdawn": 8204,
      "Ġemployee": 8205,
      "Ġcollaborating": 8206,
      "Ġminimum": 8207,
      "Ġcircuit": 8208,
      "Ġhoping": 8209,
      "Ġdynasty": 8210,
      "Ġfarms": 8211,
      "Ġsoftly": 8212,
      "Ġstepping": 8213,
      "Ġterrain": 8214,
      "Ġsexuality": 8215,
      "Ġharry": 8216,
      "Ġconvenience": 8217,
      "Ġwisely": 8218,
      "Ġsilence": 8219,
      "Ġpolicymakers": 8220,
      "Ġtouches": 8221,
      "Ġhonest": 8222,
      "Ġhonesty": 8223,
      "Ġhomemade": 8224,
      "Ġkings": 8225,
      "Ġlisteners": 8226,
      "Ġconducting": 8227,
      "Ġintelligent": 8228,
      "Ġautomatically": 8229,
      "Ġearning": 8230,
      "Ġmissing": 8231,
      "Ġbrazil": 8232,
      "Ġhosting": 8233,
      "Ġtowering": 8234,
      "Ġtranslate": 8235,
      "Ġtransparent": 8236,
      "Ġfailure": 8237,
      "Ġchurches": 8238,
      "Ġoverlooked": 8239,
      "Ġreported": 8240,
      "Ġconvin": 8241,
      "Ġtriggers": 8242,
      "Ġvictory": 8243,
      "Ġsandwiches": 8244,
      "tify": 8245,
      "Ġmobility": 8246,
      "Ġsavings": 8247,
      "Ġthreads": 8248,
      "Ġhobby": 8249,
      "Ġsurveillance": 8250,
      "Ġhindu": 8251,
      "Ġholiday": 8252,
      "Ġdepartment": 8253,
      "Ġfestival": 8254,
      "Ġsubstit": 8255,
      "Ġkorea": 8256,
      "Ġreputation": 8257,
      "Ġreefs": 8258,
      "Ġprofessor": 8259,
      "Ġtastes": 8260,
      "Ġcycles": 8261,
      "original": 8262,
      "Ġabandon": 8263,
      "Ġfossil": 8264,
      "Ġdictionary": 8265,
      "Ġcotton": 8266,
      "Ġfluctu": 8267,
      "Ġattempting": 8268,
      "$.": 8269,
      "</": 8270,
      "aq": 8271,
      "bc": 8272,
      "cor": 8273,
      "cure": 8274,
      "gence": 8275,
      "gments": 8276,
      "hr": 8277,
      "hes": 8278,
      "ham": 8279,
      "iation": 8280,
      "mas": 8281,
      "medi": 8282,
      "manship": 8283,
      "nel": 8284,
      "pict": 8285,
      "rt": 8286,
      "rate": 8287,
      "zen": 8288,
      "Ġtens": 8289,
      "Ġtub": 8290,
      "inis": 8291,
      "Ġaphas": 8292,
      "onality": 8293,
      "Ġsession": 8294,
      "Ġcrop": 8295,
      "ormal": 8296,
      "Ġwarr": 8297,
      "Ġpill": 8298,
      "Ġpans": 8299,
      "Ġpump": 8300,
      "Ġfusion": 8301,
      "Ġfishing": 8302,
      "itus": 8303,
      "Ġmort": 8304,
      "Ġmild": 8305,
      "Ġdirt": 8306,
      "Ġott": 8307,
      "isition": 8308,
      "Ġhur": 8309,
      "Ġhip": 8310,
      "ictions": 8311,
      "Ġlic": 8312,
      "Ġlamb": 8313,
      "eler": 8314,
      "thor": 8315,
      "think": 8316,
      "Ġupl": 8317,
      "Ġreact": 8318,
      "Ġgan": 8319,
      "Ġgps": 8320,
      "Ġgosp": 8321,
      "Ġnose": 8322,
      "Ġnights": 8323,
      "asive": 8324,
      "Ġyield": 8325,
      "olon": 8326,
      "Ġrip": 8327,
      "Ġriddles": 8328,
      "Ġconqu": 8329,
      "adan": 8330,
      "usal": 8331,
      "Ġproj": 8332,
      "Ġbees": 8333,
      "Ġanger": 8334,
      "riage": 8335,
      "uten": 8336,
      "places": 8337,
      "Ġweaving": 8338,
      "Ġshor": 8339,
      "Ġshops": 8340,
      "mented": 8341,
      "Ġintr": 8342,
      "Ġyours": 8343,
      "Ġtrained": 8344,
      "Ġjane": 8345,
      "Ġworried": 8346,
      "Ġworship": 8347,
      "Ġcanvas": 8348,
      "Ġfronti": 8349,
      "Ġsomewhere": 8350,
      "Ġadhere": 8351,
      "Ġplain": 8352,
      "Ġcompound": 8353,
      "Ġcompost": 8354,
      "Ġcontam": 8355,
      "âĢĵ": 8356,
      "Ġimposed": 8357,
      "Ġparagraph": 8358,
      "forward": 8359,
      "standing": 8360,
      "Ġample": 8361,
      "Ġrooms": 8362,
      "Ġroof": 8363,
      "osex": 8364,
      "Ġconsent": 8365,
      "Ġwilling": 8366,
      "Ġappar": 8367,
      "Ġappoint": 8368,
      "Ġdiff": 8369,
      "ounting": 8370,
      "Ġpert": 8371,
      "Ġperman": 8372,
      "Ġcovers": 8373,
      "Ġoutl": 8374,
      "Ġvarieties": 8375,
      "ondon": 8376,
      "------------------": 8377,
      "Ġsigned": 8378,
      "Ġinvasion": 8379,
      "overn": 8380,
      "Ġsmith": 8381,
      "Ġworker": 8382,
      "Ġsail": 8383,
      "Ġpool": 8384,
      "Ġbackyard": 8385,
      "flies": 8386,
      "Ġtransitions": 8387,
      "Ġguy": 8388,
      "Ġidentification": 8389,
      "ussion": 8390,
      "Ġdistr": 8391,
      "Ġsolace": 8392,
      "Ġbreast": 8393,
      "Ġwanting": 8394,
      "Ġasser": 8395,
      "Ġcorners": 8396,
      "Ġquests": 8397,
      "Ġgenerates": 8398,
      "Ġhistorically": 8399,
      "Ġcarro": 8400,
      "Ġcarving": 8401,
      "Ġprofile": 8402,
      "Ġextensive": 8403,
      "Ġinspection": 8404,
      "Ġdepends": 8405,
      "Ġmommy": 8406,
      "Ġpersonalized": 8407,
      "Ġoperates": 8408,
      "array": 8409,
      "Ġcertainly": 8410,
      "Ġindividuality": 8411,
      "Ġapplicable": 8412,
      "Ġtrials": 8413,
      "Ġtrips": 8414,
      "Ġintegrate": 8415,
      "ushi": 8416,
      "Ġvisualization": 8417,
      "Ġsuperv": 8418,
      "Ġdirector": 8419,
      "Ġdirectors": 8420,
      "Ġsalad": 8421,
      "Ġhyen": 8422,
      "mmas": 8423,
      "Ġtherapeutic": 8424,
      "Ġfaraway": 8425,
      "Ġvoila": 8426,
      "Ġabsurd": 8427,
      "Ġsquee": 8428,
      "poons": 8429,
      "Ġoppression": 8430,
      "Ġbrainst": 8431,
      "Ġfalls": 8432,
      "Ġmisunderstand": 8433,
      "Ġindependently": 8434,
      "Ġepid": 8435,
      "Ġbelongs": 8436,
      "Ġsequential": 8437,
      "Ġfabrics": 8438,
      "Ġadjusting": 8439,
      "Ġcrimes": 8440,
      "Ġtraditionally": 8441,
      "Ġpublishing": 8442,
      "Ġupdated": 8443,
      "Ġoceans": 8444,
      "Ġislands": 8445,
      "Ġhaiti": 8446,
      "Ġfantastical": 8447,
      "Ġdisparate": 8448,
      "Ġlux": 8449,
      "Ġpurchasing": 8450,
      "Ġvacation": 8451,
      "Ġsuffering": 8452,
      "Ġneighborhoods": 8453,
      "Ġfirmly": 8454,
      "Ġintimate": 8455,
      "Ġpersistent": 8456,
      "Ġtransmission": 8457,
      "Ġcompromise": 8458,
      "Ġminiature": 8459,
      "Ġcorresponding": 8460,
      "Ġmythology": 8461,
      "Ġpioneers": 8462,
      "Ġoccasional": 8463,
      "Ġwashington": 8464,
      "Ġinstitutional": 8465,
      "Ġegyptians": 8466,
      "help": 8467,
      "Ġcompleting": 8468,
      "Ġjurisdiction": 8469,
      "Ġsquirrels": 8470,
      "minded": 8471,
      "Ġilleg": 8472,
      "Ġstrangers": 8473,
      "Ġdisappointed": 8474,
      "Ġsubgenre": 8475,
      "Ġrecycled": 8476,
      "Ġwarriors": 8477,
      "Ġpineapple": 8478,
      "Ġamendment": 8479,
      "Ġfundamentals": 8480,
      "Ġprioritize": 8481,
      "Ġdilemmas": 8482,
      "Ġrobotics": 8483,
      "Ġwhistleb": 8484,
      "Ġnapoleon": 8485,
      "Ġpueblo": 8486,
      "Ġforensic": 8487,
      "Ġcockt": 8488,
      "Ġalcohol": 8489,
      "Ġaphasia": 8490,
      "Ġgospel": 8491,
      "df": 8492,
      "fly": 8493,
      "file": 8494,
      "grou": 8495,
      "hma": 8496,
      "houses": 8497,
      "ihood": 8498,
      "iander": 8499,
      "kind": 8500,
      "mach": 8501,
      "mother": 8502,
      "mbre": 8503,
      "oors": 8504,
      "rum": 8505,
      "rest": 8506,
      "rane": 8507,
      "sk": 8508,
      "ships": 8509,
      "uary": 8510,
      "Ġtemporary": 8511,
      "inian": 8512,
      "Ġaward": 8513,
      "Ġaug": 8514,
      "err": 8515,
      "eries": 8516,
      "Ġthy": 8517,
      "Ġcab": 8518,
      "alach": 8519,
      "alpha": 8520,
      "Ġpiqu": 8521,
      "Ġtheology": 8522,
      "Ġfat": 8523,
      "Ġfati": 8524,
      "Ġfats": 8525,
      "Ġbce": 8526,
      "Ġbone": 8527,
      "Ġboss": 8528,
      "Ġmad": 8529,
      "Ġdir": 8530,
      "Ġdict": 8531,
      "Ġink": 8532,
      "isy": 8533,
      "Ġhanging": 8534,
      "Ġhole": 8535,
      "Ġeag": 8536,
      "Ġling": 8537,
      "Ġlou": 8538,
      "Ġlondon": 8539,
      "road": 8540,
      "Ġgal": 8541,
      "Ġgues": 8542,
      "Ġnan": 8543,
      "asant": 8544,
      "igraph": 8545,
      "idal": 8546,
      "Ġstack": 8547,
      "etnam": 8548,
      "Ġrang": 8549,
      "Ġrail": 8550,
      "Ġracing": 8551,
      "Ġrank": 8552,
      "Ġconfer": 8553,
      "ulus": 8554,
      "iff": 8555,
      "iform": 8556,
      "Ġcomments": 8557,
      "emily": 8558,
      "Ġvas": 8559,
      "Ġanatom": 8560,
      "oding": 8561,
      "Ġlip": 8562,
      "Ġtraction": 8563,
      "Ġunch": 8564,
      "Ġuniqu": 8565,
      "Ġacous": 8566,
      "Ġaccepting": 8567,
      "Ġframes": 8568,
      "izer": 8569,
      "uding": 8570,
      "ocking": 8571,
      "Ġemails": 8572,
      "Ġindirect": 8573,
      "Ġamish": 8574,
      "Ġinterplay": 8575,
      "Ġintertw": 8576,
      "Ġtimely": 8577,
      "Ġquery": 8578,
      "Ġdood": 8579,
      "Ġappalach": 8580,
      "Ġ100": 8581,
      "exper": 8582,
      "raid": 8583,
      "seq": 8584,
      "Ġaggr": 8585,
      "Ġstudio": 8586,
      "Ġgray": 8587,
      "Ġafraid": 8588,
      "Ġtwice": 8589,
      "Ġsheet": 8590,
      "Ġsheets": 8591,
      "Ġpots": 8592,
      "Ġcharles": 8593,
      "Ġbackp": 8594,
      "beyond": 8595,
      "Ġrefine": 8596,
      "Ġrefresh": 8597,
      "Ġrefuge": 8598,
      "Ġprotected": 8599,
      "Ġplanned": 8600,
      "Ġdefend": 8601,
      "Ġexped": 8602,
      "Ġbelieving": 8603,
      "Ġconcrete": 8604,
      "Ġcarol": 8605,
      "Ġprofiles": 8606,
      "Ġentails": 8607,
      "Ġextension": 8608,
      "Ġdrum": 8609,
      "Ġdias": 8610,
      "Ġdiamond": 8611,
      "Ġbiom": 8612,
      "Ġbias": 8613,
      "Ġendurance": 8614,
      "Ġimmun": 8615,
      "Ġphysic": 8616,
      "Ġoperator": 8617,
      "Ġempir": 8618,
      "Ġpaints": 8619,
      "meet": 8620,
      "Ġoriginated": 8621,
      "Ġtrial": 8622,
      "Ġcompute": 8623,
      "Ġpredators": 8624,
      "umpy": 8625,
      "Ġsalmon": 8626,
      "Ġcontinuity": 8627,
      "Ġeczema": 8628,
      "Ġbarg": 8629,
      "Ġworrying": 8630,
      "Ġrichness": 8631,
      "Ġcustomize": 8632,
      "Ġflows": 8633,
      "Ġfamilial": 8634,
      "Ġstorm": 8635,
      "Ġsuggesting": 8636,
      "Ġsouthern": 8637,
      "Ġvietnam": 8638,
      "Ġembraced": 8639,
      "Ġcurrently": 8640,
      "Ġcolonies": 8641,
      "Ġphilosopher": 8642,
      "Ġholes": 8643,
      "Ġarrays": 8644,
      "Ġinstallation": 8645,
      "Ġ2018": 8646,
      "relig": 8647,
      "Ġcompleted": 8648,
      "Ġinstitute": 8649,
      "Ġbatter": 8650,
      "holding": 8651,
      "Ġopposing": 8652,
      "Ġiraq": 8653,
      "Ġappropriately": 8654,
      "Ġ1800": 8655,
      "Ġcalculations": 8656,
      "Ġdiscrimin": 8657,
      "Ġneighboring": 8658,
      "Ġexhaust": 8659,
      "Ġthanksgiving": 8660,
      "Ġrevolutionary": 8661,
      "Ġrevolutionized": 8662,
      "Ġultr": 8663,
      "Ġcommitte": 8664,
      "Ġcommitted": 8665,
      "Ġtargeting": 8666,
      "Ġsolidarity": 8667,
      "Ġcollected": 8668,
      "Ġshowcases": 8669,
      "Ġseasoned": 8670,
      "Ġsusan": 8671,
      "Ġindicating": 8672,
      "Ġfacilitating": 8673,
      "marks": 8674,
      "Ġsadness": 8675,
      "oxid": 8676,
      "Ġsmartphones": 8677,
      "Ġweekend": 8678,
      "Ġtribe": 8679,
      "Ġcounting": 8680,
      "Ġexclaimed": 8681,
      "Ġportion": 8682,
      "Ġneurolog": 8683,
      "Ġarranged": 8684,
      "Ġintentional": 8685,
      "Ġaesthetic": 8686,
      "Ġclarify": 8687,
      "Ġprobability": 8688,
      "Ġrigid": 8689,
      "function": 8690,
      "ukk": 8691,
      "Ġreporting": 8692,
      "Ġbirthday": 8693,
      "tified": 8694,
      "Ġcouple": 8695,
      "Ġnegotiations": 8696,
      "Ġbullying": 8697,
      "Ġdividing": 8698,
      "Ġadhes": 8699,
      "Ġparallels": 8700,
      "Ġaffordable": 8701,
      "Ġcasinos": 8702,
      "Ġprotagonist": 8703,
      "historical": 8704,
      "sometimes": 8705,
      "Ġvolunteers": 8706,
      "Ġbags": 8707,
      "Ġflora": 8708,
      "Ġdramatic": 8709,
      "Ġcounseling": 8710,
      "Ġmushroom": 8711,
      "Ġrestaurant": 8712,
      "Ġpyram": 8713,
      "Ġlaser": 8714,
      "Ġexceptional": 8715,
      "ellyfish": 8716,
      "Ġwheelch": 8717,
      "Ġmetabol": 8718,
      "disciplinary": 8719,
      "Ġkettlebell": 8720,
      "physical": 8721,
      "Ġstigma": 8722,
      "Ġchopped": 8723,
      "Ġbackdrop": 8724,
      "inspired": 8725,
      "Ġveggies": 8726,
      "Ġembroider": 8727,
      "picture": 8728,
      "Ġmisunderstandings": 8729,
      "Ġpiqued": 8730,
      "Ġfatigue": 8731,
      "Ġguests": 8732,
      "16": 8733,
      "`:": 8734,
      "ael": 8735,
      "auc": 8736,
      "bri": 8737,
      "bread": 8738,
      "days": 8739,
      "depend": 8740,
      "determ": 8741,
      "fac": 8742,
      "gl": 8743,
      "govern": 8744,
      "liness": 8745,
      "ni": 8746,
      "otional": 8747,
      "pol": 8748,
      "sr": 8749,
      "sing": 8750,
      "Ġib": 8751,
      "Ġtrop": 8752,
      "Ġtired": 8753,
      "Ġtardigr": 8754,
      "init": 8755,
      "instr": 8756,
      "Ġari": 8757,
      "era": 8758,
      "Ġsigh": 8759,
      "tip": 8760,
      "orient": 8761,
      "requ": 8762,
      "Ġfate": 8763,
      "itative": 8764,
      "Ġmol": 8765,
      "Ġdot": 8766,
      "Ġdense": 8767,
      "Ġow": 8768,
      "isp": 8769,
      "ston": 8770,
      "stud": 8771,
      "ectious": 8772,
      "roc": 8773,
      "Ġgems": 8774,
      "asy": 8775,
      "ilant": 8776,
      "imm": 8777,
      "imil": 8778,
      "ida": 8779,
      "Ġfortun": 8780,
      "ithme": 8781,
      "iffs": 8782,
      "Ġcomed": 8783,
      "ape": 8784,
      "Ġvow": 8785,
      "Ġvoy": 8786,
      "Ġproved": 8787,
      "Ġallev": 8788,
      "riarch": 8789,
      "Ġshot": 8790,
      "Ġshipping": 8791,
      "opol": 8792,
      "cip": 8793,
      "cially": 8794,
      "Ġintu": 8795,
      "Ġintently": 8796,
      "Ġtrash": 8797,
      "Ġtraged": 8798,
      "Ġspring": 8799,
      "Ġneither": 8800,
      "Ġacro": 8801,
      "Ġbyz": 8802,
      "antine": 8803,
      "uming": 8804,
      "umber": 8805,
      "ppers": 8806,
      "Ġsev": 8807,
      "Ġsegments": 8808,
      "Ġplas": 8809,
      "Ġcompens": 8810,
      "Ġkil": 8811,
      "Ġkol": 8812,
      "Ġdisadvant": 8813,
      "Ġarithme": 8814,
      "Ġparental": 8815,
      "Ġincidents": 8816,
      "Ġclient": 8817,
      "Ġamen": 8818,
      "Ġintergenerational": 8819,
      "ounce": 8820,
      "pron": 8821,
      "ateral": 8822,
      "expression": 8823,
      "Ġremy": 8824,
      "Ġoutline": 8825,
      "Ġpersu": 8826,
      "Ġpharm": 8827,
      "Ġnoises": 8828,
      "Ġgrid": 8829,
      "Ġbrands": 8830,
      "Ġinvites": 8831,
      "obi": 8832,
      "Ġ25": 8833,
      "Ġculturally": 8834,
      "Ġmartial": 8835,
      "Ġsauc": 8836,
      "Ġsaud": 8837,
      "Ġplayful": 8838,
      "Ġpointing": 8839,
      "pora": 8840,
      "Ġconnects": 8841,
      "encv": 8842,
      "olds": 8843,
      "Ġcourses": 8844,
      "Ġvisible": 8845,
      "Ġediting": 8846,
      "Ġmainstream": 8847,
      "Ġgrows": 8848,
      "Ġdetection": 8849,
      "Ġdetectives": 8850,
      "lessness": 8851,
      "Ġfinances": 8852,
      "Ġideologies": 8853,
      "Ġremembered": 8854,
      "Ġcommunications": 8855,
      "Ġsensing": 8856,
      "azz": 8857,
      "Ġhomework": 8858,
      "iliation": 8859,
      "Ġretre": 8860,
      "Ġwheels": 8861,
      "Ġpainful": 8862,
      "Ġmetals": 8863,
      "Ġreleases": 8864,
      "Ġswift": 8865,
      "Ġdrawings": 8866,
      "Ġaddresses": 8867,
      "Ġassociations": 8868,
      "Ġthoughtfully": 8869,
      "Ġprime": 8870,
      "commun": 8871,
      "Ġembarked": 8872,
      "Ġcollectively": 8873,
      "Ġvirgin": 8874,
      "Ġdivision": 8875,
      "Ġachieved": 8876,
      "Ġcontinuing": 8877,
      "Ġinfection": 8878,
      "Ġinfectious": 8879,
      "Ġanalyses": 8880,
      "esha": 8881,
      "Ġelectrom": 8882,
      "Ġsugges": 8883,
      "Ġheads": 8884,
      "Ġversus": 8885,
      "Ġsteel": 8886,
      "Ġcolonization": 8887,
      "Ġorders": 8888,
      "Ġ2017": 8889,
      "Ġtraveled": 8890,
      "Ġtravelers": 8891,
      "Ġplanting": 8892,
      "Ġpackage": 8893,
      "Ġreveals": 8894,
      "-------------------------": 8895,
      "Ġcuts": 8896,
      "Ġsilk": 8897,
      "Ġcopy": 8898,
      "Ġportra": 8899,
      "Ġevolutionary": 8900,
      "Ġconsuming": 8901,
      "anned": 8902,
      "Ġsurviv": 8903,
      "Ġcomposers": 8904,
      "Ġconducted": 8905,
      "Ġsuscep": 8906,
      "Ġjudge": 8907,
      "Ġpursue": 8908,
      "Ġpulled": 8909,
      "Ġdanger": 8910,
      "Ġcompassionate": 8911,
      "Ġmelodies": 8912,
      "Ġtreehouse": 8913,
      "Ġexperimentation": 8914,
      "Ġreinforce": 8915,
      "Ġbutterflies": 8916,
      "oxide": 8917,
      "Ġchemistry": 8918,
      "ruption": 8919,
      "Ġreasoning": 8920,
      "Ġprinters": 8921,
      "Ġmirror": 8922,
      "iterrane": 8923,
      "Ġliquids": 8924,
[...]
